#ifndef WEIGHTS_hehe_H
#define WEIGHTS_hehe_H

#include <stdint.h>

#define NUM_WEIGHTS 5738

const uint32_t weights_fixed[NUM_WEIGHTS] = {
    0x000037D6, 0x00002349, 0x00002C44, 0x00003E9B, 0xFFFFD71A, 0x000042E5, 0x000021D9, 0x00003C29,
    0xFFFFD9C1, 0xFFFF92A8, 0x000054A2, 0x00005503, 0x000014DC, 0xFFFFBC73, 0xFFFF3DA3, 0x00003F00,
    0x00004F74, 0xFFFFD550, 0xFFFF6E6C, 0xFFFF7484, 0x00002057, 0xFFFFDD3F, 0xFFFFA09C, 0xFFFFC7D5,
    0xFFFFD985, 0x00002671, 0xFFFFBCFE, 0xFFFFA0BF, 0xFFFF8173, 0xFFFFED06, 0x000057E5, 0x00001114,
    0xFFFF5648, 0xFFFFA6F5, 0xFFFF763F, 0x00002CC7, 0x00009027, 0x00002C0A, 0x000025BD, 0x0000099F,
    0x00000B89, 0x00006C3A, 0x0000988F, 0x0000446E, 0x000046E2, 0xFFFFEFC1, 0xFFFFDF14, 0xFFFFF2A0,
    0x000036B3, 0x00000735, 0xFFFFC826, 0x000010D8, 0xFFFFEF99, 0x00001361, 0x00002C0E, 0xFFFFB3DC,
    0x00001F3D, 0x000014F3, 0x000049FB, 0x0000348C, 0xFFFFE829, 0x00000C36, 0x00001053, 0x0000852C,
    0xFFFFBBFA, 0x000025C4, 0x00001834, 0x000016DC, 0x00005EB0, 0x00004324, 0x00000C77, 0xFFFFFB55,
    0xFFFFF7C2, 0x00001EB0, 0x000093B5, 0x0000704A, 0x00006370, 0x00000EF4, 0xFFFFD1E9, 0xFFFFCB27,
    0x000033AA, 0xFFFF941B, 0xFFFF69C7, 0xFFFFB8FD, 0x000031A1, 0xFFFF43DF, 0xFFFF6CAA, 0xFFFFDAF3,
    0x00003045, 0x00004884, 0xFFFFB8E7, 0x0000352A, 0x00004FEE, 0x0000550E, 0x000014B7, 0x00005AB1,
    0x00002FED, 0x000025CF, 0x000011A1, 0xFFFFDE7E, 0x00000358, 0xFFFFEDDF, 0xFFFFFB6D, 0xFFFFCB68,
    0xFFFFE5E1, 0xFFFFBF65, 0xFFFFFC27, 0x000012E6, 0xFFFFF4A0, 0xFFFF64EF, 0x000018E3, 0xFFFFEF88,
    0x00001DB2, 0x0000390D, 0x00005176, 0x00001D98, 0x000031DA, 0xFFFFF896, 0xFFFFE14B, 0x000012F3,
    0xFFFFDAED, 0xFFFFE7BC, 0x0000102C, 0xFFFFA7BF, 0x00000B8C, 0x00002D17, 0x000008D9, 0x00001143,
    0xFFFFAA4B, 0xFFFFF29A, 0x00001054, 0x000028CE, 0xFFFFECDE, 0x00000A83, 0x00001840, 0xFFFFF376,
    0x00002709, 0x0000126D, 0xFFFFF60A, 0xFFFFCBE1, 0xFFFFEBC1, 0xFFFFBA2F, 0xFFFF90BC, 0xFFFFB6EC,
    0xFFFFBA91, 0xFFFFE9C9, 0x00000B87, 0xFFFF7615, 0xFFFFB69C, 0x00001177, 0x00005100, 0x0000097B,
    0x00005148, 0xFFFF3092, 0xFFFFBD35, 0xFFFFFF96, 0x00001BBC, 0xFFFFF01B, 0x00001C19, 0xFFFFE08A,
    0x00000DA4, 0xFFFFEFE6, 0x00000DF6, 0x0000270F, 0x00001677, 0xFFFFE655, 0x00001853, 0x00000CD3,
    0x00007965, 0x0000287B, 0xFFFFDD6F, 0xFFFFC230, 0xFFFFCCB6, 0x00009217, 0x00005189, 0x00001268,
    0xFFFFFF3E, 0xFFFF9C11, 0xFFFFB59C, 0xFFFFE4A4, 0xFFFFEBC0, 0x000010FF, 0xFFFFFFD8, 0xFFFFF0CA,
    0xFFFFF3A0, 0x00003218, 0x000012A6, 0x00003A03, 0x00000E8B, 0x00000DDB, 0x00005280, 0x00000255,
    0x0000412F, 0xFFFFE02E, 0xFFFFF096, 0xFFFFDB4D, 0xFFFFC7E5, 0xFFFFE356, 0xFFFFBBFA, 0x00000E67,
    0xFFFFC375, 0xFFFFD0AE, 0xFFFFB336, 0xFFFF2758, 0xFFFFC272, 0xFFFFF341, 0xFFFFD59C, 0xFFFFE44E,
    0x00000847, 0x0000036C, 0xFFFFD2FE, 0xFFFFC7A6, 0xFFFFF001, 0x000014B2, 0xFFFFA89B, 0x00004BF1,
    0xFFFFDCA6, 0xFFFFFD0D, 0xFFFFDDC6, 0xFFFF39E3, 0x00000AC9, 0x00001DA3, 0xFFFFCF91, 0x000021C5,
    0x0000131F, 0x00002A50, 0x00005250, 0x00000A2D, 0x0000292B, 0x000012B8, 0xFFFFEC3A, 0xFFFFA391,
    0xFFFF9C72, 0xFFFF9FDC, 0x0000029D, 0x000032AA, 0x00003103, 0xFFFFF156, 0xFFFFD908, 0xFFFFE3F1,
    0x000004AA, 0x000046CE, 0xFFFFECFC, 0xFFFFD29B, 0x00001524, 0xFFFFC872, 0xFFFFD6CA, 0x000011E7,
    0xFFFFC7BB, 0x000050C7, 0xFFFFB0C4, 0xFFFFE543, 0x00001068, 0xFFFFFBA5, 0x00000E39, 0xFFFFECA2,
    0x00001CEB, 0x0000026A, 0x0000096D, 0x0000450A, 0x00001C45, 0xFFFFA040, 0xFFFF74AC, 0xFFFFFBDE,
    0xFFFFD295, 0x00003A15, 0xFFFFEE68, 0xFFFFA143, 0xFFFFFCFE, 0xFFFFBF6A, 0x0000371C, 0xFFFFF9C4,
    0xFFFFFBE0, 0x0000134F, 0x000002D0, 0x00005283, 0x00004593, 0x00003571, 0x00002C2E, 0x0000382B,
    0x00001E91, 0x00001636, 0x00004FBF, 0x000025B9, 0xFFFFE2F1, 0x00002579, 0xFFFFBC74, 0x00001E71,
    0x0000105A, 0xFFFFE30B, 0x0000469D, 0xFFFFA29A, 0xFFFFD272, 0x000031E8, 0x000000A2, 0x00000D2E,
    0xFFFF9B21, 0xFFFFDBF4, 0xFFFFE46D, 0x00002C46, 0x00005957, 0xFFFFE4A7, 0xFFFFF09D, 0xFFFFF55F,
    0xFFFFF01A, 0xFFFFD733, 0xFFFFEC64, 0xFFFFE6B3, 0x000013B3, 0xFFFFBDAF, 0x00001ED3, 0x0000286F,
    0x00003DCC, 0x000058C4, 0x000003A6, 0x00002282, 0x000015FB, 0x00001C96, 0x00001A98, 0xFFFF98EA,
    0xFFFF960D, 0xFFFFAA6C, 0xFFFFA0C6, 0xFFFF8ED3, 0xFFFFA6D1, 0x0000065D, 0x00002455, 0xFFFFD229,
    0xFFFF8E4C, 0x000020D5, 0xFFFFFFE8, 0xFFFFF938, 0xFFFFC1EF, 0xFFFFFB78, 0x00002AF7, 0x00002489,
    0x00002879, 0x00000929, 0x00000485, 0x00002E5A, 0x0000300C, 0x00005B19, 0xFFFFD7A0, 0xFFFF934B,
    0x00002A5B, 0x00004BD7, 0x0000380D, 0xFFFFADF2, 0xFFFF9C23, 0x00003C7B, 0x000021DF, 0x00001C3F,
    0xFFFFFAA0, 0x000026A2, 0xFFFFDB0F, 0x000002C0, 0xFFFFFD81, 0x00001F0C, 0x0000198B, 0x0000170B,
    0x00003AFA, 0x00005965, 0x0000388E, 0x0000233E, 0x000003F1, 0xFFFFFCA4, 0x00001E79, 0xFFFFE12E,
    0xFFFFA847, 0xFFFF925B, 0xFFFF73F1, 0xFFFF9821, 0xFFFFA011, 0xFFFF8CD2, 0xFFFF9E05, 0xFFFFC941,
    0xFFFFF7D4, 0x00002208, 0x00000C99, 0xFFFFD944, 0xFFFFEC3D, 0xFFFFDA01, 0x00000A7D, 0x00000D70,
    0xFFFFEAB9, 0xFFFFFE62, 0x00000DC9, 0x00004CAF, 0x00002DD7, 0xFFFFA131, 0xFFFFACD7, 0x000009FE,
    0x000030D7, 0xFFFFF9C8, 0xFFFFBBF7, 0xFFFFA775, 0xFFFFEDEF, 0x000092F6, 0x0000A1D1, 0x00000470,
    0x00004126, 0x00002110, 0x00004665, 0xFFFFEDB2, 0xFFFFC9AF, 0xFFFF9B39, 0x00000745, 0x000012BB,
    0xFFFFF991, 0x0000341A, 0x00001886, 0x0000618B, 0x00003C87, 0x00003CBD, 0x00001B3F, 0x000029D2,
    0x00007ED1, 0x00003774, 0x000018A5, 0x000016F8, 0x00005FE1, 0x00002D02, 0x00002D3F, 0x00001E14,
    0x0000227E, 0x00000C77, 0x00002443, 0x00000287, 0xFFFFEF5A, 0x00003DF8, 0xFFFFDAF1, 0xFFFFB754,
    0xFFFFC3CA, 0xFFFF98F7, 0x00000107, 0xFFFF774E, 0xFFFFC38F, 0xFFFFD07B, 0xFFFFCDF0, 0xFFFFBCB5,
    0xFFFF897D, 0xFFFFACCA, 0xFFFFBCC7, 0x000012D5, 0xFFFFD7E1, 0xFFFF9A0A, 0xFFFFF022, 0xFFFFF85A,
    0x00001508, 0x000011D2, 0xFFFFE617, 0x000002A7, 0xFFFFFCCA, 0x00000E50, 0xFFFF85ED, 0xFFFFB6EB,
    0x0000055F, 0x00000F47, 0xFFFFB84F, 0xFFFFE182, 0x00000A32, 0x00000E88, 0x000029AA, 0xFFFFD87A,
    0xFFFFAD58, 0x0000302C, 0x00001C49, 0x00001DC6, 0xFFFFF62D, 0xFFFFFD7D, 0xFFFFFE87, 0x00002240,
    0x00002BC3, 0xFFFFEE76, 0x00000A68, 0x000026AB, 0x00005036, 0x00002269, 0xFFFFEF21, 0xFFFF8ECE,
    0x000010DF, 0xFFFFEBCB, 0xFFFFFDA1, 0xFFFF5C14, 0xFFFFD504, 0x00000B65, 0x000003A8, 0xFFFFDFD1,
    0xFFFF9671, 0x00000B14, 0xFFFFD46D, 0x00000CCB, 0xFFFFB320, 0xFFFFE086, 0x00000AD4, 0xFFFFDB37,
    0xFFFFC957, 0xFFFF799C, 0xFFFFF566, 0x000042A7, 0x00000668, 0xFFFFD57F, 0x00000C09, 0x00000504,
    0xFFFFDA76, 0xFFFFF888, 0xFFFFF220, 0xFFFFF252, 0x00001E27, 0x00000850, 0xFFFF9B0D, 0xFFFFC161,
    0xFFFFAED6, 0x00000E8D, 0x00002C1C, 0xFFFFC2D4, 0xFFFFC23D, 0xFFFFB744, 0xFFFFF161, 0xFFFFB728,
    0xFFFFCC94, 0x000007E0, 0x000000BD, 0xFFFFEDE8, 0xFFFFE03E, 0xFFFFFAF5, 0x000021B1, 0x000010A9,
    0xFFFFF9D0, 0x00000CF0, 0x000005A0, 0xFFFFD9FD, 0xFFFFF287, 0x00001E54, 0xFFFFC15F, 0xFFFFFF53,
    0x00005858, 0xFFFFD1C6, 0xFFFFD92D, 0xFFFFC094, 0xFFFFB8C3, 0x00007766, 0x00003E82, 0xFFFFEBD0,
    0x0000425C, 0xFFFFB503, 0xFFFFC34F, 0x00004034, 0xFFFFE56E, 0x00000031, 0xFFFFD96C, 0xFFFFC54B,
    0xFFFFC121, 0xFFFFE0CF, 0x000034BC, 0x00003686, 0x000023DC, 0x00000F0B, 0xFFFFFFD1, 0x0000229E,
    0x00005C29, 0xFFFFE35A, 0xFFFFE17E, 0xFFFFE171, 0xFFFFC413, 0x00002429, 0x00000045, 0xFFFFD516,
    0xFFFFF2BE, 0xFFFFC158, 0xFFFFEDAA, 0x00001C22, 0xFFFFFD4F, 0xFFFFE77C, 0xFFFFFB70, 0xFFFFE293,
    0xFFFFE47C, 0x00000868, 0xFFFFCE30, 0x00000651, 0x00000A8B, 0x00003AA8, 0x00004A5D, 0x00001213,
    0x00000E0C, 0xFFFFE6B3, 0xFFFFC0ED, 0x00006C9B, 0x00000735, 0x000013E1, 0xFFFFE4BD, 0xFFFF78BC,
    0xFFFFF8F4, 0x000036B4, 0x00005727, 0x00002547, 0x0000143B, 0xFFFFEEC7, 0x00003C8D, 0x00007DED,
    0x00005D82, 0x00005C03, 0xFFFFE984, 0xFFFFD759, 0xFFFFBD13, 0xFFFFB708, 0xFFFF81E2, 0x0000001A,
    0xFFFFBBAC, 0x000058EF, 0xFFFFFCCB, 0xFFFFF5EF, 0xFFFFBB58, 0xFFFFE2E5, 0x000005E6, 0x000019BF,
    0xFFFFBEB2, 0xFFFF8FAB, 0x00001316, 0x00000A6A, 0x00007C39, 0xFFFFD44C, 0x000015F0, 0x00003F66,
    0x000008C8, 0x00007496, 0xFFFFA415, 0xFFFFE3C1, 0x00000B83, 0xFFFFCD2C, 0x000028A2, 0x00005195,
    0x00006E6B, 0x00004918, 0xFFFFEDBF, 0x00001283, 0x00003E93, 0x00000AD7, 0xFFFF9717, 0xFFFFE989,
    0xFFFFD371, 0xFFFFBB36, 0xFFFFCCCC, 0xFFFFCE35, 0xFFFFC93B, 0xFFFFD333, 0xFFFFD58C, 0xFFFFFC83,
    0x00000DDB, 0xFFFF8723, 0xFFFFED32, 0xFFFFF21F, 0x00003E5E, 0xFFFFDF5B, 0x0000334A, 0x000032D3,
    0x00004ED3, 0x000041D4, 0xFFFFEABF, 0xFFFFFEC6, 0xFFFFD901, 0xFFFFA535, 0xFFFFDB3C, 0xFFFFCA4A,
    0xFFFFDE90, 0xFFFFEA97, 0xFFFFBAD4, 0xFFFFE9F0, 0x00001754, 0xFFFF9AA5, 0xFFFFC91F, 0xFFFFF45D,
    0x0000141C, 0x00003792, 0xFFFFF50A, 0xFFFFF531, 0x000002DD, 0x000001AC, 0xFFFFF371, 0xFFFFC366,
    0x00001D5A, 0x00002733, 0x00001426, 0xFFFFE718, 0x00000ABF, 0xFFFFEB81, 0xFFFFFB75, 0x000027E1,
    0xFFFFC1D1, 0xFFFFFC0F, 0xFFFFF524, 0x00002E2F, 0x00008BD4, 0x0000690B, 0x00000BAF, 0x00001ACD,
    0x00003D03, 0x000018CA, 0x00000917, 0x00003915, 0x00003C2F, 0xFFFFC016, 0xFFFF93C6, 0xFFFFCBBA,
    0xFFFFD230, 0xFFFFF5F5, 0x000001F2, 0x0000185F, 0xFFFFF7B8, 0xFFFFFC84, 0x000010A6, 0x00003A7C,
    0x0000229E, 0xFFFFA183, 0xFFFFEC84, 0xFFFFDAB9, 0xFFFFC73B, 0xFFFFE882, 0xFFFFC0F2, 0xFFFFF481,
    0x000004EB, 0x0000030A, 0xFFFFE386, 0x0000478A, 0xFFFFFEE7, 0xFFFFE9E2, 0xFFFFFA59, 0xFFFFD0A9,
    0x0000005A, 0x000032E3, 0xFFFFDAE9, 0x00000148, 0xFFFFF384, 0xFFFFD7C5, 0x00003347, 0xFFFFCD13,
    0xFFFFC4B0, 0xFFFFB11D, 0xFFFFDAF2, 0xFFFFF38C, 0xFFFFCE2F, 0xFFFFC7A4, 0x00001386, 0x000040D7,
    0x00002AAA, 0x00001073, 0x00004D3B, 0x000049DD, 0x000046B8, 0x00003D0A, 0x000001D9, 0x00002850,
    0x00004369, 0xFFFFBDDA, 0xFFFFC822, 0xFFFFD60C, 0xFFFFBEA8, 0xFFFFEA0F, 0xFFFFC9B3, 0x00000820,
    0x00002C9A, 0x000038CB, 0x00004D66, 0xFFFFF55A, 0x00004126, 0x00002DA3, 0x000057F4, 0x000020FC,
    0xFFFFFBAF, 0x00000B06, 0x00000516, 0x0000185B, 0x000014FB, 0x00001B4C, 0xFFFFBE40, 0xFFFFAD68,
    0xFFFF9D1D, 0xFFFFB7F1, 0xFFFFB799, 0x00000895, 0xFFFFF5D7, 0x00000356, 0x00003E59, 0x00002AD6,
    0x00001269, 0x0000026F, 0x000019B0, 0x00003BEB, 0xFFFFFB25, 0x00002548, 0xFFFFED25, 0x00000813,
    0xFFFFE783, 0x00002932, 0x000007F9, 0xFFFFEA9D, 0xFFFFAB07, 0xFFFFCAC2, 0x0000568A, 0xFFFFD726,
    0xFFFFCE57, 0xFFFFED4D, 0xFFFFCA93, 0x00001ACD, 0x00000AFC, 0xFFFFFA1D, 0xFFFFF8B6, 0xFFFFF585,
    0xFFFF940E, 0xFFFFF1B2, 0xFFFFC27C, 0x0000356F, 0x00004936, 0x0000392E, 0xFFFFAD00, 0xFFFF1FB2,
    0xFFFF1FA7, 0xFFFF4F21, 0xFFFFD603, 0x000001F7, 0xFFFFE605, 0xFFFFBE7A, 0xFFFF6846, 0xFFFF6EA3,
    0x00005462, 0x000042B0, 0x00003173, 0x00004C3E, 0x00002C8A, 0x00000FB7, 0x0000397E, 0xFFFFFDC2,
    0x00000A22, 0x00000033, 0xFFFF98D6, 0xFFFFBC11, 0xFFFFF688, 0x00002608, 0x00001A31, 0x00001910,
    0x000065C8, 0x00002D51, 0xFFFF8657, 0xFFFFCEFE, 0xFFFFDDC0, 0x00003A61, 0x00006653, 0x00004C78,
    0xFFFFFD75, 0xFFFFFDB9, 0x00002ECC, 0x000026C3, 0x0000374F, 0x00003A29, 0x00000B43, 0x000002D4,
    0xFFFFF8F4, 0x000026DD, 0x00003C0F, 0xFFFFB417, 0xFFFFAE9E, 0x000023EF, 0x000024FF, 0x0000069D,
    0xFFFFD2BE, 0xFFFF984B, 0xFFFFA481, 0xFFFFB5BA, 0xFFFFA93E, 0xFFFFCF2B, 0xFFFFEEE2, 0xFFFFED8B,
    0xFFFFC188, 0x0000003F, 0xFFFFFD5C, 0x00003F36, 0x000029E7, 0x000019D1, 0x0000159F, 0xFFFFCF0D,
    0xFFFFFD0A, 0x0000028D, 0x00002B67, 0x000065D6, 0x00001CB4, 0x00000D83, 0xFFFFE0A8, 0xFFFFDF4E,
    0x00000319, 0x000097E1, 0xFFFFF1AA, 0xFFFF94DC, 0xFFFFB69B, 0x000034EE, 0x0000594A, 0x0000066A,
    0xFFFFCB07, 0xFFFFA5E8, 0xFFFFC0E6, 0x00004A48, 0x0000059B, 0xFFFFFAEA, 0x00001BEB, 0x0000062D,
    0xFFFF5F35, 0xFFFF9A1D, 0x00003630, 0xFFFFFACD, 0xFFFF7935, 0xFFFFB1C2, 0xFFFFA225, 0xFFFFDF92,
    0x0000301F, 0x00001711, 0xFFFFE75C, 0xFFFFE751, 0x00001582, 0xFFFF9CBA, 0x000038DC, 0x000018A1,
    0xFFFF89AD, 0xFFFFC320, 0xFFFFEE9A, 0x000059ED, 0x00000307, 0x00001021, 0xFFFFE0CB, 0x000021AD,
    0x00001196, 0xFFFFD86B, 0x00004465, 0xFFFF9F0B, 0xFFFFF50F, 0xFFFFC280, 0xFFFFDAE1, 0xFFFFEE46,
    0x00002183, 0x00001CDB, 0xFFFFD3AE, 0x00004CE8, 0x00001FC0, 0x00001E57, 0xFFFFFD64, 0x00000E4A,
    0x000013E4, 0x00004FFF, 0xFFFFDAA7, 0xFFFEAADD, 0xFFFF975E, 0x00008D5A, 0x000082F1, 0xFFFF05DC,
    0x000063DA, 0xFFFFDFBB, 0x0000BE1A, 0x000045B7, 0xFFFECCDC, 0x0000251D, 0xFFFFB8AD, 0x00005C09,
    0xFFFF9B1F, 0xFFFFED58, 0x0000BA89, 0xFFFFF524, 0xFFFFBBD0, 0x000048F7, 0xFFFFC864, 0x0000880D,
    0xFFFF96FE, 0x00001E97, 0x000006FB, 0xFFFFAFA9, 0x0000AFB9, 0x00008EFC, 0x00003D60, 0xFFFFF4D3,
    0xFFFF69F9, 0x00001012, 0xFFFFF7E1, 0xFFFFD6AD, 0xFFFFFCF3, 0xFFFF8461, 0xFFFF6DD1, 0x0000370F,
    0x00000DC5, 0x00002D5E, 0x00001AC8, 0xFFFF5E5E, 0x00006521, 0xFFFF7B9D, 0x00000C50, 0xFFFEC41E,
    0xFFFECBF9, 0xFFFEE3BB, 0x0000311C, 0x00002F39, 0x00000A22, 0x00007A4D, 0x00000EBB, 0xFFFFC7F9,
    0xFFFF60DA, 0xFFFF71B2, 0x000023D8, 0xFFFF662A, 0x00000C93, 0x000038A8, 0x00000492, 0xFFFE8335,
    0x000032FE, 0x000034CA, 0xFFFFF8D6, 0xFFFF2D1C, 0xFFFFC317, 0x000087B1, 0x0000598A, 0xFFFF29C6,
    0x00002CE3, 0xFFFFA81F, 0x00004C0D, 0x00007B05, 0xFFFF46AF, 0x00000A80, 0xFFFF8BBF, 0x00009683,
    0x00001799, 0xFFFFF735, 0x00006ACD, 0x00005F84, 0x0000001C, 0xFFFFDE90, 0xFFFFB0EB, 0xFFFFD1DB,
    0xFFFF9231, 0xFFFFD717, 0x000070BC, 0xFFFFE68E, 0x00000E2F, 0x00003670, 0x00003864, 0x00003558,
    0xFFFFB919, 0x000050E0, 0xFFFFA632, 0xFFFFBA29, 0xFFFFC52B, 0x000005E4, 0x000040D8, 0xFFFF8A01,
    0x00002077, 0xFFFFEC79, 0x00007823, 0xFFFF8C67, 0xFFFFEFA1, 0x000024A2, 0x000032E8, 0x0000110C,
    0xFFFF8A90, 0xFFFFEDFB, 0x00003AF9, 0xFFFFA0A5, 0xFFFF7067, 0xFFFFD1B1, 0x00005E05, 0x00005ACB,
    0xFFFFFB67, 0x00000F6C, 0xFFFF83D4, 0x00001998, 0x00004697, 0xFFFFCF34, 0xFFFF6B28, 0x00003473,
    0xFFFFACCC, 0xFFFFBB2C, 0x00004DE5, 0xFFFFF596, 0x00002302, 0xFFFFA8E7, 0xFFFFD21A, 0x00004A13,
    0x00007431, 0x000041EC, 0xFFFFA82C, 0xFFFF898F, 0x0000633D, 0xFFFFCED9, 0x00001CD6, 0xFFFF4A9C,
    0xFFFF70C0, 0xFFFFC6C5, 0x00000B6E, 0x00001647, 0x00006874, 0x00008675, 0x000009B3, 0xFFFFF7FF,
    0xFFFFB510, 0xFFFFD9BB, 0xFFFFEB06, 0xFFFFB584, 0x00002B2E, 0x00003A5A, 0xFFFFBC75, 0xFFFF8383,
    0xFFFFE7DD, 0x00002328, 0xFFFFBD2F, 0xFFFFEA56, 0x000012A1, 0xFFFEA7AC, 0xFFFFE412, 0x00001C72,
    0x00002388, 0xFFFFE470, 0x00002E7F, 0xFFFF7630, 0x00001B5B, 0x00003648, 0x000015EE, 0x000002D4,
    0xFFFFF084, 0xFFFFEF0A, 0xFFFFA68E, 0xFFFFB0A1, 0xFFFFF381, 0x00002D7F, 0x000038DF, 0x00002261,
    0x00000F64, 0xFFFF8E80, 0xFFFFE78A, 0xFFFFDBE8, 0x00002F58, 0x00001DFD, 0xFFFFB610, 0xFFFFF28C,
    0xFFFF9B76, 0xFFFFFC39, 0xFFFFE249, 0xFFFFDB81, 0x00000725, 0xFFFFC6AA, 0xFFFFEF50, 0xFFFFCE98,
    0x0000164C, 0x00001829, 0x00004C0E, 0xFFFFBCA2, 0xFFFFF060, 0xFFFFF933, 0x0000325E, 0xFFFFEA14,
    0xFFFF4184, 0xFFFFBE76, 0xFFFFFDF9, 0xFFFFF3D1, 0x00000B27, 0x00003F5E, 0x00001B4F, 0x00003A21,
    0xFFFFCF40, 0xFFFFDE85, 0x0000479E, 0xFFFFB39F, 0x00003892, 0x00003BE8, 0x00000780, 0xFFFF80D6,
    0xFFFFB791, 0x00001294, 0xFFFFF19A, 0xFFFFD337, 0x0000246E, 0xFFFFB67B, 0xFFFFFC18, 0xFFFFEFF9,
    0xFFFFC6C2, 0xFFFFAC22, 0x00000C09, 0xFFFFE638, 0xFFFFDC4F, 0x0000208A, 0xFFFF099A, 0x000018F6,
    0xFFFFBD52, 0x00000F0E, 0xFFFFC27A, 0xFFFFBA39, 0xFFFFCC31, 0xFFFFF7C7, 0x000019D3, 0x00003BE9,
    0x00002D00, 0x000022E1, 0x000004C7, 0xFFFFD269, 0xFFFFF22F, 0x000030ED, 0x00002D06, 0xFFFFBAE8,
    0xFFFFD9C7, 0x00002518, 0x0000160A, 0xFFFF4834, 0x00001922, 0x00002B5C, 0x00005A5E, 0xFFFF99EA,
    0x00005864, 0xFFFFFD05, 0x00004ECD, 0x000004AD, 0xFFFFDD10, 0xFFFFF478, 0x0000228E, 0xFFFFE32B,
    0xFFFF8CEB, 0x00001CFE, 0x000060C3, 0x00000846, 0x00003A69, 0x00003B13, 0xFFFFAE2B, 0x00004A6A,
    0xFFFFC269, 0xFFFFE129, 0xFFFFEDFE, 0x0000185C, 0x00008DA8, 0x000064BC, 0x00002D64, 0xFFFFE4F0,
    0xFFFFF48F, 0xFFFFFB4D, 0x00001F0B, 0xFFFFF022, 0x000027C0, 0xFFFF47EB, 0xFFFF76B6, 0x00002608,
    0x00004677, 0xFFFFF11C, 0x000050DE, 0x00002D82, 0x00001D8A, 0xFFFFCD5A, 0x00003C46, 0xFFFFD729,
    0xFFFFFC42, 0xFFFEFAA6, 0x00002F78, 0x00002761, 0x00005E46, 0x0000D587, 0x00002ACF, 0x00001382,
    0xFFFFCC0C, 0xFFFF6426, 0x00000AF3, 0xFFFF899D, 0x000041A1, 0x00001A41, 0x00000518, 0x00000A69,
    0x00002659, 0x00001260, 0xFFFFFA02, 0xFFFED15A, 0x000011EA, 0x000039D9, 0x00003046, 0xFFFED0D8,
    0x00000585, 0x000026E0, 0x0000854F, 0x000063F7, 0xFFFFC1FF, 0xFFFFD134, 0x00001889, 0x000060BB,
    0xFFFFFCF1, 0xFFFFF644, 0x000078D3, 0x00000C6D, 0xFFFFF07F, 0xFFFFFB62, 0xFFFF1CDB, 0x00000EF9,
    0xFFFF997C, 0xFFFFB357, 0xFFFFF287, 0x00000A7B, 0x00003CC7, 0x0000203F, 0xFFFFEEC0, 0x00002FF3,
    0x00001AFD, 0xFFFF994A, 0xFFFFC462, 0x00000BB7, 0x000051F1, 0xFFFF3505, 0x00003817, 0xFFFFD0D8,
    0xFFFFE2C6, 0x000050D3, 0xFFFFD263, 0xFFFFB3B9, 0x00001C0E, 0x00005187, 0xFFFFEE72, 0xFFFFFF68,
    0xFFFFD830, 0xFFFF33DA, 0x00005C1C, 0xFFFFABA6, 0x000021C2, 0x00006747, 0x00001788, 0xFFFFD7E8,
    0x00002A69, 0xFFFFD665, 0xFFFFE7E6, 0x00003F63, 0x00000D76, 0xFFFFDA24, 0xFFFFC59B, 0xFFFF4CA3,
    0xFFFF8913, 0xFFFFED98, 0x00001EA2, 0x00002C82, 0x0000105A, 0xFFFF6046, 0xFFFFA79E, 0x00005612,
    0x00004E8B, 0x000018AD, 0xFFFFD1CE, 0xFFFF8A9A, 0x000055D1, 0xFFFFDA7D, 0x000019C2, 0xFFFF4A30,
    0xFFFF9F3C, 0xFFFFD76B, 0xFFFFE635, 0x00001F98, 0x00004523, 0x00008191, 0x00003089, 0xFFFFEBF0,
    0xFFFFC09C, 0xFFFFF985, 0x000025A3, 0xFFFFFA71, 0x0000191B, 0x00000B87, 0xFFFFF4ED, 0xFFFF9C60,
    0xFFFFF1F7, 0x00002848, 0xFFFFD9F5, 0xFFFFFD9A, 0xFFFFE353, 0xFFFF1825, 0xFFFFAFEB, 0x000031E7,
    0x00001D4F, 0xFFFFECF3, 0x0000213C, 0xFFFFB277, 0x0000150F, 0x000029B8, 0xFFFFE78E, 0x00001154,
    0xFFFFF526, 0xFFFFE7DD, 0xFFFF5BC6, 0xFFFFC542, 0x0000125C, 0x00002BF5, 0x0000373D, 0x0000068E,
    0x00003784, 0xFFFFE8D7, 0xFFFFEB4E, 0xFFFFFA03, 0x00000ADD, 0x00001986, 0xFFFFEBD1, 0xFFFFF050,
    0xFFFFC8E4, 0x00000032, 0x00001AEE, 0xFFFFF384, 0xFFFFD241, 0xFFFFD279, 0xFFFFEB66, 0x00002D85,
    0xFFFFFA12, 0x000008A4, 0x00000B1C, 0xFFFFBCC3, 0x00000258, 0x00000D20, 0x00001544, 0xFFFFD01A,
    0xFFFF7FDD, 0xFFFFCA90, 0x00002837, 0xFFFFEFA1, 0x00001342, 0x0000415A, 0x0000042E, 0x0000135D,
    0xFFFFE26E, 0xFFFFD6E5, 0x00000C6F, 0xFFFFAB7D, 0x00001DAF, 0x0000401D, 0xFFFFF4AA, 0xFFFFBE2B,
    0x0000455C, 0xFFFF9C89, 0xFFFFE155, 0xFFFF6849, 0x00000BBE, 0x00000ACD, 0xFFFFBEC3, 0xFFFFCC48,
    0xFFFFE3DA, 0xFFFFEA78, 0xFFFFF9CB, 0x00004E50, 0xFFFFBCAA, 0xFFFFCB9A, 0xFFFFF242, 0x00005DA8,
    0x00000A12, 0xFFFFE2F6, 0xFFFFC7DC, 0x0000114F, 0x00000D38, 0xFFFFF5D8, 0xFFFFCD9F, 0x00003FE9,
    0x00002814, 0x00001D4D, 0x00002CF5, 0xFFFFE567, 0xFFFFBA34, 0xFFFFADF7, 0x00006588, 0x00000433,
    0xFFFFA777, 0xFFFFFDE4, 0x0000173F, 0x00000EF5, 0x00000B17, 0xFFFFEBA4, 0x00002FA5, 0xFFFFF9CF,
    0x000006EB, 0xFFFFF83A, 0xFFFFEB8A, 0xFFFFA836, 0x000051CB, 0xFFFFE8FB, 0xFFFFFA82, 0xFFFFCB03,
    0xFFFFE62C, 0x00002E50, 0x00001209, 0xFFFFF784, 0x0000172C, 0xFFFFC839, 0xFFFFEDE9, 0x00002757,
    0xFFFFF5C3, 0x000027C4, 0x000004BB, 0x000026A9, 0x000018F7, 0x00002B26, 0x00002BD2, 0xFFFFBC0A,
    0x00007C38, 0xFFFFC10C, 0x00003F1D, 0xFFFF9B01, 0x00006C82, 0xFFFFD664, 0xFFFF8015, 0x000025FF,
    0x00005513, 0x000052BB, 0xFFFFF311, 0x00008F61, 0xFFFFBACB, 0x00005791, 0xFFFFF9E1, 0x00007AC8,
    0x000082E9, 0xFFFF55C1, 0xFFFFADF6, 0x00004EBB, 0x00002835, 0x000053DB, 0xFFFFF08A, 0x000004A3,
    0x00006D46, 0xFFFFA04E, 0xFFFFD5D3, 0xFFFFED5F, 0xFFFFEAD0, 0xFFFFD43E, 0xFFFFB97B, 0x00005404,
    0x00001284, 0xFFFFF4E7, 0xFFFFF629, 0xFFFEFAE4, 0x00003F6F, 0x0000204B, 0x000031AA, 0xFFFEF5AA,
    0xFFFFE4B8, 0x00002F03, 0x000030C1, 0x00003AFE, 0xFFFFD30D, 0xFFFFA599, 0x0000070A, 0x000049AC,
    0xFFFFF292, 0xFFFFF554, 0x000082BC, 0x00002952, 0xFFFF3467, 0xFFFFDFEC, 0xFFFF581D, 0x00001EA8,
    0xFFFF07C5, 0xFFFFDF1C, 0x00003DC2, 0xFFFFF41E, 0x000044E4, 0x00001BCE, 0x000013DD, 0x00001530,
    0xFFFFAEB8, 0xFFFFDE0A, 0x0000006D, 0x00003A89, 0x00002009, 0xFFFF81B2, 0xFFFFF580, 0x000083F6,
    0xFFFFE9F6, 0x00002F83, 0xFFFFD4A3, 0xFFFF3232, 0x00006290, 0x00001FF4, 0xFFFFE004, 0xFFFFD5A8,
    0x0000038B, 0xFFFFF1BF, 0x0000116E, 0xFFFFD51B, 0x00000CF9, 0x00002035, 0x0000014C, 0xFFFFE1BF,
    0x00004721, 0xFFFFF529, 0x000010D3, 0x00001BB6, 0xFFFFF7CD, 0x0000126A, 0x00002903, 0xFFFFC7F2,
    0xFFFFCA73, 0xFFFFD3C3, 0xFFFFF7F2, 0x000023FC, 0x00001115, 0xFFFF9EA4, 0xFFFFA090, 0x000056CC,
    0x00000771, 0x0000363A, 0xFFFF646B, 0xFFFF93D9, 0x00005EA9, 0xFFFFD954, 0xFFFFCDFF, 0xFFFFD839,
    0x00000A0D, 0x0000275A, 0xFFFFC4F9, 0x000023CC, 0x000014E2, 0x00000427, 0xFFFFF6CF, 0xFFFFF5AD,
    0xFFFFF5F5, 0x0000007A, 0x00002F6A, 0xFFFFFAC1, 0x0000079A, 0x000041EA, 0x0000410A, 0xFFFFE821,
    0x000003D1, 0x00001D2A, 0xFFFFEDE2, 0xFFFFF094, 0xFFFFE260, 0xFFFF4911, 0xFFFFAC14, 0x00001328,
    0x00001AF8, 0xFFFFD507, 0x0000136B, 0xFFFFE9E9, 0xFFFFEC43, 0x00004DDD, 0x00000A84, 0x00002D7D,
    0xFFFFFA63, 0xFFFFC3CF, 0xFFFF441C, 0xFFFFF745, 0x000000CF, 0x00002E62, 0x000023EA, 0x0000228C,
    0x00003734, 0x00002D1B, 0xFFFFD6A2, 0xFFFFFE2C, 0x00000123, 0x00001A81, 0xFFFFEA5A, 0xFFFFFA50,
    0x000004F6, 0xFFFFE526, 0xFFFFF07C, 0x00000B83, 0xFFFFDC3D, 0xFFFFD05D, 0xFFFFC60E, 0x00002F35,
    0xFFFFF9A9, 0x0000025A, 0xFFFFFB2A, 0xFFFFFE9F, 0x000014BC, 0x00001EF3, 0xFFFFE2BC, 0x00004682,
    0xFFFFFCD5, 0xFFFFF97B, 0xFFFFD1DE, 0x0000035F, 0x00001B44, 0x00002FE0, 0x00001243, 0x0000174A,
    0x0000394D, 0x00000B94, 0x0000288F, 0xFFFFC81C, 0xFFFFCD5A, 0x00001B72, 0x0000167A, 0x000002DC,
    0x00005D74, 0x00000451, 0xFFFFF86E, 0xFFFFD1A6, 0x00000CCE, 0x00002606, 0xFFFFDB0B, 0xFFFFE382,
    0x0000022C, 0x0000132B, 0x00002C42, 0x00008235, 0xFFFFF501, 0xFFFFCDC4, 0x00002B45, 0x0000326A,
    0x000054A9, 0x00001391, 0xFFFFDF81, 0x0000387C, 0x000001FA, 0xFFFFE361, 0x00000274, 0x00002F99,
    0xFFFFFF4A, 0x00002C8F, 0xFFFFF99F, 0x00000A19, 0xFFFFEE5E, 0xFFFFC918, 0xFFFF9A33, 0x00003F6E,
    0xFFFFCF96, 0x00001858, 0x000014DA, 0x0000261A, 0xFFFFF52A, 0xFFFFE4D9, 0xFFFFFE3A, 0x000025AF,
    0x0000118F, 0x00001B72, 0xFFFFEDD2, 0xFFFF83D3, 0x00004C47, 0xFFFFF832, 0xFFFFFC82, 0xFFFFE539,
    0xFFFFE91A, 0xFFFFFF55, 0xFFFFFF7F, 0xFFFFF0C3, 0xFFFFEA9F, 0xFFFFE097, 0x00000DA5, 0x000014E2,
    0x00000093, 0x000025C6, 0x00000087, 0x00001579, 0x00000C25, 0x00000CC5, 0x00001CB4, 0xFFFFEE5B,
    0x0000A81A, 0xFFFFF287, 0x00002942, 0xFFFF43AC, 0xFFFF7D65, 0xFFFFD392, 0xFFFF82CA, 0xFFFFE61B,
    0x00005944, 0x0000182A, 0x000019EE, 0x0000C461, 0xFFFF7F09, 0x00004203, 0x00002F9B, 0x0000638A,
    0x00010A40, 0xFFFF6FA6, 0xFFFF96B9, 0x000009C1, 0x000014E1, 0x00000D2F, 0x00002C4E, 0xFFFF7A91,
    0x000073AA, 0xFFFFAFA2, 0xFFFFCB70, 0xFFFFF27A, 0xFFFED91A, 0xFFFF1393, 0xFFFF9E74, 0x0000ED82,
    0x00002EC6, 0xFFFFE5E2, 0xFFFFD973, 0xFFFF445A, 0x000026F0, 0x00003C85, 0x000068CD, 0xFFFF7151,
    0xFFFFCA78, 0x00001BA6, 0x00003241, 0x00007541, 0xFFFFF136, 0xFFFFC640, 0xFFFFFB8A, 0x00002A87,
    0xFFFFB164, 0x00000936, 0x00004A3D, 0x00001D6D, 0xFFFED5E1, 0xFFFF8273, 0xFFFF3B5D, 0x000007BA,
    0xFFFEC3BD, 0x00002972, 0x00002846, 0x000039B6, 0x00002493, 0xFFFFE55F, 0x00003B68, 0x00002A44,
    0xFFFFE74C, 0xFFFFBB6A, 0xFFFFF215, 0x00004736, 0x00002387, 0xFFFF2E67, 0x0000217D, 0x000064F7,
    0xFFFFE1FA, 0x00002090, 0xFFFF6C33, 0xFFFEFFAC, 0x000077BD, 0x00000D88, 0xFFFFCAF3, 0xFFFFD9CA,
    0xFFFFF666, 0xFFFFF72A, 0xFFFFE787, 0xFFFFF19B, 0xFFFFE901, 0xFFFFDD26, 0x00001A56, 0x00002652,
    0x00003546, 0x0000112C, 0x000010B3, 0x00002A74, 0xFFFFE7EB, 0xFFFFD901, 0x00003715, 0xFFFFE17D,
    0x000022CE, 0xFFFF72D5, 0xFFFFE445, 0xFFFFCDDD, 0x000007A9, 0xFFFFF4FF, 0xFFFFDFE1, 0x0000389E,
    0xFFFFE2B7, 0x00003536, 0xFFFF6B0F, 0xFFFFE669, 0xFFFFB924, 0xFFFFF744, 0xFFFF76DF, 0x00001074,
    0x00004CCC, 0xFFFF739C, 0xFFFFECF0, 0x00001545, 0xFFFFD89D, 0x00001443, 0xFFFFBA84, 0x000040E0,
    0x00004798, 0x00001798, 0x00005C71, 0xFFFFE2BA, 0xFFFFB272, 0x00002424, 0x00008194, 0x000010C8,
    0x000026CC, 0xFFFFCDEC, 0xFFFFEB24, 0xFFFFC111, 0xFFFFE916, 0xFFFF8A6B, 0xFFFFF7E6, 0xFFFFE5DD,
    0x000015C4, 0xFFFFC368, 0x00001BB0, 0x000010B4, 0xFFFFD675, 0x00005D8B, 0xFFFFE138, 0x00002983,
    0x00001DB3, 0xFFFF8F6C, 0xFFFF3838, 0x00000C0B, 0x0000205A, 0x00002110, 0x00001A82, 0x000031A6,
    0x0000787A, 0x00001623, 0xFFFFF133, 0x000001C8, 0xFFFFBF9A, 0xFFFFCF3E, 0xFFFFFDA9, 0x000021CC,
    0x00003F08, 0x00000EE5, 0xFFFFD9AE, 0x00000976, 0xFFFFCC91, 0x0000201E, 0xFFFF4605, 0x000017E0,
    0xFFFFFEFB, 0x000011D0, 0xFFFFFAE4, 0x00001A21, 0xFFFFFFD4, 0xFFFFC78E, 0xFFFFF6D8, 0x00004EB0,
    0x00003564, 0xFFFFEF10, 0xFFFFE791, 0x00002A43, 0xFFFFF144, 0xFFFFF49B, 0x00004BB9, 0xFFFFF8D1,
    0x00000BAD, 0xFFFFDC96, 0x00003BB3, 0xFFFFED7A, 0xFFFFC5C5, 0xFFFFF19C, 0x000021E1, 0x00002892,
    0xFFFFC186, 0x00003880, 0x0000256A, 0x00001BCC, 0xFFFFF90B, 0xFFFFD695, 0xFFFFED9A, 0xFFFFC3BA,
    0xFFFFD0B3, 0xFFFF8990, 0xFFFFEFF5, 0x00001066, 0xFFFFDD26, 0xFFFFF2E6, 0x0000385B, 0x000043E6,
    0xFFFFED24, 0x000025A0, 0xFFFFC47E, 0x0000234C, 0x00003313, 0xFFFFE39A, 0xFFFFEEE7, 0x00004207,
    0x00002C21, 0x0000554D, 0xFFFF8DB9, 0x000018C4, 0xFFFFC4A6, 0xFFFFA0A4, 0xFFFFB206, 0xFFFFA2D9,
    0x0000626A, 0x0000490A, 0x000020F8, 0xFFFFF8C1, 0x00003CBF, 0x000053CC, 0x000026ED, 0xFFFFDB1D,
    0xFFFFB552, 0xFFFFF6B7, 0xFFFFA94F, 0xFFFFF986, 0xFFFF8753, 0x00001658, 0xFFFF9B37, 0xFFFFD31A,
    0x000018C5, 0x00005298, 0x000053F6, 0x000018AF, 0xFFFFD77D, 0xFFFFB452, 0xFFFFF6D7, 0x000027A1,
    0xFFFFC02D, 0xFFFFE57C, 0xFFFFE159, 0xFFFFF7F6, 0x0000017A, 0xFFFFDB2F, 0xFFFFF1A2, 0x0000353A,
    0xFFFFE6BC, 0x00001CE0, 0xFFFFD7AE, 0xFFFFD410, 0x000046F7, 0xFFFF2CB7, 0xFFFF714A, 0x00001E99,
    0x00000836, 0x00003C11, 0x00000E1C, 0xFFFFDFB1, 0x00002767, 0xFFFFB12C, 0x000015BF, 0xFFFFB89D,
    0xFFFFEA4E, 0xFFFFBCEA, 0x000022EF, 0xFFFFD32F, 0x0000178D, 0x00006E75, 0x000008B9, 0xFFFFC5A9,
    0xFFFFC33C, 0xFFFF23AE, 0x00002978, 0xFFFF92A8, 0x00005A82, 0x00005B8A, 0x00001539, 0xFFFFAE84,
    0x0000189D, 0x00001686, 0x000006E9, 0x00000DCE, 0xFFFFBEB6, 0x00001127, 0xFFFFFF83, 0x00000315,
    0x0000292D, 0xFFFFE48A, 0x0000167D, 0x00002497, 0xFFFFC07B, 0x00002EA0, 0xFFFF3701, 0x00002F8C,
    0x000024E1, 0x0000260A, 0x00000172, 0x0000077A, 0xFFFFFD91, 0xFFFFE471, 0x00000F16, 0x00001320,
    0x00001CB7, 0xFFFFEDF7, 0x0000109F, 0xFFFFF57C, 0xFFFFFA3A, 0x00000225, 0x00000C0A, 0x00002899,
    0x00001CD8, 0x00001885, 0xFFFFDABB, 0x00000EEC, 0xFFFFD307, 0xFFFF82F4, 0x00005CCA, 0x000029F1,
    0xFFFFF01F, 0xFFFFA33B, 0x00000C52, 0x000017F1, 0xFFFFF13E, 0x000032BF, 0xFFFFD9F8, 0xFFFFF510,
    0x00005045, 0x00000E5D, 0xFFFFECBD, 0xFFFF4105, 0x00001726, 0xFFFFC061, 0xFFFFFD5D, 0xFFFFEF83,
    0x00002DE0, 0xFFFF9EC6, 0xFFFED4AB, 0x0000509D, 0xFFFFCF8B, 0x0000074E, 0xFFFF0B50, 0x00007B98,
    0xFFFF9DB0, 0xFFFFF226, 0x00001247, 0x0000057A, 0xFFFFE36A, 0xFFFFD3B5, 0xFFFFA6C6, 0x00001DB6,
    0x00005409, 0x000035F1, 0x000037EE, 0xFFFF9C50, 0x00002EEC, 0x0000041E, 0x00005B29, 0xFFFF9BC1,
    0xFFFF092D, 0xFFFF5690, 0xFFFF7F2C, 0x0000588D, 0x00002E1C, 0x00008C84, 0x00000D14, 0x00000C89,
    0xFFFFD191, 0xFFFFC081, 0xFFFFE823, 0xFFFF9785, 0x00000D76, 0x00002C8B, 0xFFFFDBF6, 0xFFFF660B,
    0x00000D51, 0x000014E1, 0x0000221A, 0x000024BB, 0xFFFF7E16, 0xFFFFEF42, 0x00000DCB, 0x000003A5,
    0x00001153, 0xFFFFD3B0, 0xFFFFED2C, 0xFFFFE43B, 0x00001AC9, 0x000001BE, 0xFFFFFC2C, 0x00002B73,
    0x00004636, 0x00003BDD, 0xFFFFF6D8, 0xFFFFB985, 0xFFFFF652, 0xFFFFD132, 0xFFFFF934, 0xFFFF9047,
    0x00000405, 0xFFFFFE01, 0xFFFF6A37, 0x00004FB4, 0xFFFFDBC3, 0x0000050E, 0xFFFF93B8, 0x000051E8,
    0x00000D0A, 0xFFFFDBBD, 0xFFFFDA6E, 0xFFFFE25A, 0x00000395, 0xFFFEF3C6, 0xFFFFC43D, 0x00003D87,
    0xFFFFE1C8, 0x0000455A, 0x00000C1B, 0xFFFFD163, 0x00003FC4, 0x000006EE, 0x0000177D, 0xFFFF9654,
    0xFFFFDA42, 0xFFFF9FD4, 0x000047D5, 0xFFFFE056, 0x0000129F, 0x00008B88, 0x00001922, 0xFFFFD352,
    0x0000015F, 0xFFFF02DD, 0xFFFFF16E, 0x0000121B, 0x00001BF3, 0x0000492C, 0xFFFFF297, 0xFFFFD2E9,
    0xFFFFA184, 0x0000282A, 0x000032E7, 0x000002D6, 0xFFFF9A7B, 0xFFFFF292, 0x000020DC, 0xFFFFBC8F,
    0x000056BF, 0xFFFFB86E, 0x000058FC, 0xFFFFA308, 0xFFFFD8DA, 0x000042B5, 0x00001A8D, 0x00005520,
    0xFFFFDD68, 0x000043EB, 0xFFFFAE43, 0x00001ADB, 0xFFFFECD0, 0xFFFFF6E6, 0xFFFFE5D4, 0x00004C1A,
    0x000022C9, 0x000031C2, 0xFFFFE7B8, 0xFFFFB769, 0xFFFFEE7A, 0x00003FAA, 0x00001CAC, 0xFFFFD0A8,
    0x000046C3, 0xFFFFC602, 0xFFFF9D5B, 0xFFFFF08D, 0xFFFFD70C, 0xFFFFFEFC, 0x000067D4, 0x00002A5F,
    0xFFFF987A, 0x000022B7, 0xFFFFA6B8, 0xFFFFFBEF, 0xFFFFE335, 0x0000575E, 0xFFFF9F1D, 0xFFFFD761,
    0x00001B33, 0xFFFFDAFC, 0x00005192, 0xFFFF91C9, 0xFFFFF78A, 0x00003784, 0xFFFF8FAA, 0xFFFFD5F7,
    0x00006469, 0x0000129E, 0xFFFFDEF0, 0x000036D2, 0x00001BB8, 0x000034FD, 0x00000036, 0x000049F6,
    0xFFFFB717, 0x00001A33, 0xFFFFF461, 0xFFFFEBD3, 0x00003C54, 0xFFFF5F95, 0xFFFF5547, 0xFFFFFED4,
    0x000000F6, 0x00002105, 0x00000D31, 0xFFFFFB2E, 0x00002529, 0xFFFF7954, 0x00000BA6, 0x000015F0,
    0x00001AC2, 0x000012C3, 0xFFFFEB57, 0xFFFFFE45, 0x00003979, 0x00000173, 0x00001A47, 0xFFFFEEFB,
    0xFFFFDEBB, 0xFFFF95FB, 0x00001AF4, 0xFFFF9BF9, 0x0000342A, 0x000014D1, 0x00003CDE, 0xFFFFA3B6,
    0x000025B7, 0xFFFFD9AD, 0xFFFFEAEE, 0xFFFFD285, 0x00001743, 0x00000170, 0x00000C45, 0xFFFFD55F,
    0xFFFFEB09, 0xFFFFFB05, 0x00004B7A, 0x00002480, 0xFFFFE99A, 0x000010F3, 0x00000106, 0x00002680,
    0x000007FC, 0xFFFFF50A, 0x00000E6E, 0xFFFFF856, 0x00001A1A, 0x00000D7B, 0xFFFFB99F, 0x0000161D,
    0x00000002, 0x00001077, 0xFFFFF907, 0xFFFFF441, 0x000008E8, 0xFFFFDA50, 0xFFFFF89F, 0xFFFFFF2F,
    0x0000315B, 0x00001C10, 0x00002142, 0x00002586, 0xFFFFE750, 0xFFFFA688, 0x0000488A, 0x000005B6,
    0xFFFFDFD5, 0x000008F6, 0xFFFFBEDC, 0xFFFFDB04, 0x00001D34, 0x000052B2, 0xFFFFDAEF, 0xFFFFEB40,
    0x000034E3, 0x000034EB, 0x00002B5B, 0xFFFF6126, 0xFFFFEE66, 0xFFFFE301, 0xFFFFF4CD, 0xFFFF7CFC,
    0x00006465, 0xFFFF8ECC, 0xFFFF6078, 0x00005439, 0xFFFFFE44, 0xFFFFF41D, 0xFFFF3DAC, 0x00006155,
    0xFFFF847F, 0x0000246C, 0x00000290, 0x00000D92, 0xFFFFF1EB, 0xFFFF1293, 0xFFFF6434, 0x000023C7,
    0x00006082, 0x000008F7, 0x00000FA3, 0xFFFF8885, 0x000055E5, 0xFFFFCAF4, 0x0000034C, 0xFFFFFE31,
    0xFFFFB720, 0xFFFFDBC3, 0xFFFF43C5, 0x00002FA9, 0x00004130, 0x00002E53, 0x00002AB2, 0x00000A75,
    0xFFFFE081, 0xFFFFE150, 0xFFFFF8AC, 0xFFFFBD77, 0x000014D1, 0x00001040, 0xFFFFFAAF, 0xFFFF3F8F,
    0xFFFFFE67, 0x0000402E, 0x00004963, 0x000017AA, 0xFFFF1FDE, 0x00001F4B, 0xFFFFF5F2, 0xFFFFEDBB,
    0x0000209A, 0x000022FF, 0xFFFFD8C7, 0xFFFFFF3D, 0xFFFFF013, 0xFFFFCEC4, 0xFFFFF9C4, 0x00002864,
    0x00001A8C, 0x00004411, 0x000008E5, 0x00000343, 0x00000A92, 0xFFFFF049, 0xFFFFEC9A, 0xFFFF46D9,
    0xFFFFF8EE, 0x00000156, 0x00000332, 0x00001AE4, 0xFFFFD168, 0x00002520, 0xFFFFE8FA, 0x00003B82,
    0xFFFFE173, 0x00000747, 0xFFFFBCDD, 0xFFFFC8C4, 0x0000259D, 0xFFFFD304, 0xFFFFE87C, 0x00002E70,
    0xFFFFC655, 0x0000316C, 0x00000796, 0xFFFFB46C, 0x00000F82, 0xFFFFE78C, 0xFFFFDB66, 0xFFFFB7AF,
    0xFFFFD5AC, 0xFFFFDD01, 0x00003A14, 0xFFFFCC2E, 0xFFFFF851, 0x000025BA, 0x0000107D, 0xFFFFDA2B,
    0xFFFFD78E, 0xFFFFDD94, 0x0000079F, 0xFFFFCFE9, 0x0000701A, 0x00003EE9, 0x00002816, 0xFFFFD0FA,
    0x00004761, 0xFFFF6C92, 0xFFFFFE34, 0x00001D5F, 0xFFFFD8F7, 0xFFFF9FA8, 0xFFFFE5AA, 0xFFFFD3AB,
    0x0000044A, 0x0000465F, 0x000055A6, 0x0000102C, 0xFFFFED27, 0x000020FD, 0xFFFFEB99, 0x0000424A,
    0x00001178, 0xFFFFA268, 0x00003160, 0x000051B7, 0x000026DE, 0x00001B3F, 0xFFFFDB87, 0xFFFFE869,
    0x00001ECE, 0xFFFFF1B3, 0x0000013B, 0xFFFFE72B, 0xFFFFE448, 0xFFFF6433, 0xFFFFE8AC, 0x00000633,
    0xFFFFE579, 0xFFFFFB10, 0xFFFFD168, 0x00000276, 0x00000DFF, 0xFFFFCC56, 0xFFFFF5A1, 0x00003033,
    0xFFFFD81F, 0xFFFFA7F5, 0xFFFFD769, 0xFFFFF8CA, 0x000029CF, 0xFFFFEE47, 0x0000286C, 0x0000156B,
    0x0000080E, 0x00001520, 0xFFFFC684, 0xFFFF7C6E, 0x00000EB2, 0x000008CA, 0x000026FD, 0x00001E3D,
    0x000024A1, 0xFFFFEF93, 0x000039B2, 0x00001126, 0x00000938, 0xFFFFFE84, 0xFFFFC785, 0xFFFFEC1E,
    0x000006FC, 0x00003273, 0x00001D12, 0x00001441, 0x00005604, 0xFFFFF410, 0xFFFF490D, 0x00002BEE,
    0x0000099C, 0x00001E36, 0x00002162, 0xFFFFECCE, 0xFFFFFE30, 0xFFFFCC82, 0xFFFFE4DA, 0x00001DFC,
    0xFFFFE30F, 0xFFFF8453, 0xFFFF3023, 0x00003EBF, 0x00000248, 0x00000F8A, 0x00002CCD, 0x000009F2,
    0xFFFFE4A8, 0x00003AC7, 0xFFFFE13F, 0xFFFF834C, 0xFFFFEECB, 0xFFFFC961, 0x00001BAF, 0xFFFFF81D,
    0xFFFFFBF0, 0xFFFFFA67, 0x000007C5, 0xFFFFC79D, 0x00000FC8, 0xFFFFF881, 0x0000265A, 0x000008DF,
    0x000018D7, 0xFFFFF4FB, 0x00004AAB, 0xFFFFFD5C, 0x00002448, 0xFFFFDCBE, 0x00000714, 0x00001D84,
    0xFFFFEDE5, 0xFFFFEAC3, 0x00002A9C, 0xFFFFD91B, 0xFFFF5FCD, 0x000027D6, 0x00000BF1, 0x00001084,
    0xFFFFCEB8, 0x00002459, 0x00000AB7, 0xFFFFE314, 0x000041A8, 0x00001F41, 0x00000781, 0xFFFFEA28,
    0xFFFFFCE8, 0x00000F56, 0x000022E7, 0x0000181E, 0xFFFFD41C, 0xFFFFE8D4, 0x00004A9C, 0x00000E3E,
    0xFFFFF9BC, 0x00002C82, 0xFFFFD89A, 0xFFFFBBF6, 0xFFFFFC5A, 0x00004455, 0xFFFFCA57, 0xFFFFD88D,
    0xFFFFF466, 0xFFFFED4B, 0xFFFFE591, 0x00001A61, 0x000017FF, 0x00001C79, 0x00001314, 0xFFFFE42B,
    0x00003435, 0xFFFFF416, 0xFFFFD848, 0x00003C9F, 0xFFFFB1EA, 0xFFFFF517, 0xFFFFD71A, 0xFFFFFCEA,
    0xFFFFA94A, 0x000025B4, 0xFFFFDEA5, 0x00001006, 0x000027D4, 0xFFFF4DDF, 0xFFFFC2E3, 0x0000474D,
    0x000012EB, 0xFFFFE4D4, 0x00001ADB, 0xFFFF8B3B, 0xFFFFEADC, 0x00004451, 0xFFFFEA92, 0x0000351B,
    0xFFFFFAB8, 0xFFFFE9F1, 0xFFFF128C, 0x000026B7, 0x00002AD2, 0x000053AA, 0x0000406B, 0x00001148,
    0x000061AC, 0x00000587, 0x00001F20, 0xFFFFD424, 0x000019C4, 0x00000D8D, 0xFFFFFB6C, 0xFFFFE9C8,
    0x00000E6C, 0x00004718, 0xFFFFEF06, 0xFFFFD104, 0xFFFF1508, 0x000030C3, 0x000007FB, 0xFFFFB9EA,
    0x00003DBD, 0x00005B55, 0x000058C1, 0x00000E1D, 0x00000A91, 0xFFFFE8A8, 0x00001802, 0xFFFFF3BC,
    0xFFFFDD80, 0x0000035B, 0x000013E2, 0x00007BC3, 0x00000F07, 0x00002278, 0xFFFFF333, 0xFFFF6387,
    0xFFFFA353, 0xFFFF40F8, 0x00000A03, 0x00000436, 0x00002AA0, 0x0000509B, 0xFFFFEEA4, 0x00000448,
    0x000026F0, 0xFFFFEA85, 0x000007B7, 0xFFFF1378, 0x00006AA4, 0x0000056C, 0xFFFFC371, 0xFFFFD801,
    0xFFFFF54F, 0x000023EB, 0x00000D98, 0x00004975, 0xFFFFE0F0, 0xFFFFF415, 0xFFFFDAE3, 0x00005333,
    0x000023E2, 0xFFFFB4AF, 0xFFFFCABB, 0xFFFF9775, 0x000000C2, 0x0000354D, 0xFFFFF2AE, 0xFFFFF3C3,
    0x000035FC, 0x00001218, 0x000046CA, 0xFFFFC822, 0x00002F6D, 0x00004BAF, 0x00004069, 0x000013E0,
    0x00002DDA, 0x000009D2, 0xFFFFFEA5, 0x0000413A, 0xFFFFCEBF, 0x00001B77, 0x0000478C, 0x0000270A,
    0x00003BED, 0x000075F6, 0x000056E2, 0x000020EF, 0x00002B01, 0x00003A31, 0x0000065B, 0xFFFFA368,
    0x0000134A, 0xFFFFE393, 0x00002ACB, 0x000024C1, 0x0000084F, 0xFFFFE58E, 0xFFFFF2D4, 0x0000076F,
    0xFFFFC255, 0xFFFF86FC, 0xFFFF8A18, 0x00005B9A, 0xFFFFFEBB, 0x00001661, 0xFFFF4A8B, 0x0000539F,
    0xFFFFD34E, 0x000025D0, 0x00001937, 0xFFFFEC0C, 0xFFFFF5EC, 0x00000922, 0xFFFFBE85, 0x000009EB,
    0x00000B28, 0x0000057B, 0x0000058D, 0x00001325, 0xFFFFDBA8, 0xFFFFCD15, 0x00000E5A, 0x00002322,
    0x00001A3F, 0x0000092D, 0xFFFFFD8D, 0x00001210, 0x000012DF, 0x000011F5, 0x00001028, 0xFFFFFE6F,
    0x000010F6, 0x000009F6, 0x00002073, 0xFFFFC50F, 0xFFFFEAF3, 0x00001AE4, 0x00001C86, 0x00000BB7,
    0x0000637B, 0xFFFFD35F, 0x00004148, 0xFFFFEE2A, 0xFFFF7ED5, 0xFFFFE785, 0x00001271, 0xFFFFC783,
    0x00004692, 0x00008DF0, 0x000056CC, 0x00006369, 0xFFFFD010, 0x00004DF9, 0x00002A6D, 0x000021F8,
    0x00006204, 0xFFFF4FB5, 0xFFFFEE63, 0x00001AED, 0x00002F89, 0x00002297, 0xFFFFCB48, 0xFFFF5513,
    0x00001A13, 0xFFFF7E05, 0xFFFF7F67, 0x00000B12, 0xFFFF9E03, 0xFFFF5CB8, 0xFFFF826D, 0x000081C4,
    0xFFFF7363, 0x00000721, 0x00000140, 0xFFFFD28B, 0x0000133A, 0x0000089C, 0x00007B1C, 0x0000142B,
    0xFFFFF03F, 0xFFFFA858, 0x000025D6, 0xFFFFF087, 0x000010BA, 0x00004CD2, 0xFFFFD242, 0x0000040F,
    0xFFFF5C2B, 0x000029A4, 0x000006EF, 0xFFFF886D, 0xFFFED8BD, 0xFFFFF289, 0xFFFFDD9B, 0x000051CA,
    0xFFFFEF29, 0x00004BD8, 0xFFFFFD20, 0x00000483, 0x00004B28, 0x00002A26, 0x000064B5, 0xFFFFD49B,
    0xFFFFF7ED, 0xFFFFD9F1, 0xFFFFE577, 0xFFFFFCDA, 0xFFFFF0E8, 0xFFFFC5C4, 0x00000981, 0xFFFFF6D3,
    0xFFFFE115, 0xFFFFE8EB, 0xFFFFF9C8, 0xFFFFFB32, 0xFFFFD769, 0xFFFFFE63, 0x0000078C, 0x00002F8F,
    0xFFFFF709, 0xFFFFCC20, 0xFFFFB1FF, 0x00003C66, 0xFFFFFEBC, 0xFFFFEB60, 0x000017B5, 0x00002870,
    0xFFFFFB3A, 0x00002A01, 0x000024A0, 0xFFFFD8C4, 0xFFFFCC66, 0xFFFFDA7F, 0x00000DD6, 0xFFFFDDF1,
    0x00001DF3, 0xFFFFCD8A, 0x00001069, 0xFFFF961D, 0x000024A8, 0xFFFFB0BC, 0x00004CDA, 0xFFFFA9A4,
    0x00000D25, 0xFFFFC2A9, 0x000009A6, 0x0000506E, 0xFFFF614D, 0x00006B27, 0xFFFF7732, 0x000039A4,
    0x00001BA5, 0xFFFFC788, 0xFFFF7EB0, 0x00002317, 0x00001EB7, 0x000040BF, 0xFFFFDF01, 0x00003BB5,
    0x000075D8, 0x00002309, 0x00000C6B, 0x00001972, 0xFFFFB96D, 0xFFFFEE73, 0x000034DF, 0x000027FC,
    0x00000F9B, 0x00001233, 0xFFFFE5B1, 0xFFFFE155, 0xFFFF5B77, 0x00002EDA, 0x0000385F, 0xFFFFABE8,
    0x00002165, 0x00001D6B, 0x000019B0, 0xFFFFF2EE, 0xFFFFD384, 0x00004040, 0x00000756, 0xFFFFD16C,
    0xFFFFC250, 0xFFFFDF9A, 0x00003A9D, 0x00001DD4, 0xFFFFF3D8, 0x0000249E, 0xFFFFC2BE, 0xFFFF931C,
    0xFFFFBFAC, 0xFFFF048A, 0x00001721, 0x000010FD, 0x00002311, 0x00002FF7, 0x00001231, 0x00001AC4,
    0x00001F56, 0xFFFFB675, 0x00000595, 0xFFFF6915, 0xFFFFDFBD, 0xFFFFFE3B, 0xFFFF2872, 0xFFFFC903,
    0x000016C5, 0x00005949, 0xFFFFCDB7, 0x00002218, 0xFFFFE3F7, 0xFFFFBEDA, 0x000002E7, 0x000034A3,
    0x00002959, 0xFFFFAC71, 0xFFFFCD1B, 0x000042C4, 0x00002828, 0x00002D2B, 0x00004887, 0xFFFF6E2F,
    0x00000CDF, 0xFFFF8D3B, 0x0000273E, 0xFFFFCC9B, 0xFFFF9638, 0xFFFF9E9E, 0x00000C76, 0x000029A1,
    0xFFFFEF10, 0xFFFFFFA8, 0xFFFFCC0C, 0xFFFFF77A, 0x00000DC2, 0x000011F4, 0x00002EF0, 0x00000C0A,
    0xFFFFC5B1, 0x00000E60, 0xFFFFED27, 0x00001B9A, 0x00001ABB, 0xFFFFC1C6, 0x00000713, 0xFFFFF291,
    0xFFFFFF69, 0xFFFFEFAB, 0xFFFFF01F, 0xFFFFFDE0, 0xFFFFDF95, 0x00000149, 0xFFFFD72C, 0x0000372E,
    0xFFFFC31F, 0x00000DF9, 0x00002FB8, 0x000025E0, 0x000019F3, 0xFFFFB71B, 0x00003E7E, 0xFFFFDBE8,
    0xFFFFF921, 0xFFFFF441, 0x00002FD9, 0x00000F81, 0xFFFFDEF7, 0x000070FF, 0xFFFF94AF, 0xFFFF6FFF,
    0xFFFFC3E7, 0xFFFFDACF, 0xFFFFAE36, 0x0000134D, 0xFFFF7F23, 0xFFFFF410, 0x00007DDC, 0x000003FA,
    0x00000136, 0xFFFFF47C, 0xFFFFB110, 0x00007BA6, 0x000048B0, 0xFFFFD4B3, 0xFFFFF0BB, 0xFFFFFBB4,
    0xFFFFE3EC, 0x00001332, 0xFFFFEFF6, 0xFFFFE6F0, 0xFFFFC7AD, 0xFFFF7247, 0xFFFFE71E, 0xFFFFF7C9,
    0xFFFFF130, 0x00003A39, 0x000021FE, 0xFFFFCCAA, 0x00006BD8, 0x000011FE, 0xFFFFD0A8, 0xFFFFFBDC,
    0x00008BAB, 0xFFFFFC76, 0x0000133B, 0x00002092, 0x0000017F, 0xFFFFE282, 0x000085F0, 0x000020F7,
    0xFFFFFAD5, 0xFFFFF63E, 0x00000B38, 0x000005D8, 0x00004E08, 0x00006BE1, 0x00002038, 0x00001CCD,
    0x00002A4D, 0xFFFFB45D, 0xFFFF46C5, 0xFFFFE3ED, 0x00005950, 0x00002B25, 0xFFFFB0CB, 0xFFFFF580,
    0xFFFFDDB3, 0x000017B7, 0xFFFFE178, 0x00000093, 0xFFFFA312, 0x0000184E, 0xFFFFF274, 0xFFFFC20C,
    0xFFFFEB4A, 0xFFFFCBE5, 0xFFFFEF2C, 0xFFFFFAB5, 0xFFFF9C31, 0x000010F7, 0xFFFFA2CF, 0x00003D6B,
    0x00002C4E, 0x000017A8, 0xFFFFE0BC, 0x00002003, 0xFFFFD4C5, 0xFFFFDB33, 0xFFFFF76F, 0x00000769,
    0xFFFFFB2E, 0xFFFFF803, 0x0000254B, 0xFFFFD149, 0xFFFFC6B0, 0xFFFFD84F, 0x00003BB2, 0x00001BBE,
    0x000040F8, 0x00001797, 0x0000151E, 0x000032A7, 0xFFFF6F4A, 0x0000025C, 0x000045E4, 0xFFFFF1EA,
    0xFFFFE94A, 0xFFFFB51F, 0xFFFFD0A5, 0xFFFFE6B3, 0x00001546, 0xFFFFFD93, 0xFFFF7F7C, 0x00004CA8,
    0x00007459, 0x000046D5, 0x00000190, 0xFFFF9D2D, 0xFFFFDB10, 0xFFFF935C, 0x00000B61, 0xFFFF797C,
    0x00002E41, 0x00001036, 0xFFFFDC22, 0x0000789C, 0xFFFFB904, 0xFFFFD792, 0x000006EB, 0x0000647F,
    0x00000B1C, 0x000020B5, 0xFFFFF6DB, 0x000036BC, 0xFFFFA639, 0xFFFFE046, 0x00003CD1, 0x0000208B,
    0xFFFFD06B, 0xFFFFE30F, 0x00001ED9, 0xFFFFA383, 0xFFFFE51D, 0x00003193, 0xFFFFEEF5, 0x000003CE,
    0x00000FF5, 0x00002FCF, 0xFFFFE9E9, 0xFFFFB0A7, 0xFFFFF09D, 0xFFFFD7DA, 0x00001BA2, 0xFFFFB457,
    0xFFFFFA7C, 0x000003DC, 0xFFFFC2C2, 0x000087D0, 0x000007C6, 0x00002DD9, 0xFFFF3108, 0x0000297B,
    0xFFFFF9F3, 0x00003558, 0x000030B9, 0x00001602, 0xFFFFA430, 0xFFFFF070, 0xFFFFFCC6, 0xFFFFFA3C,
    0x00000523, 0xFFFFEA14, 0xFFFFF98A, 0x00001149, 0xFFFFF9C3, 0xFFFFD454, 0xFFFFF16A, 0x00001C08,
    0x00003217, 0x00006782, 0xFFFFF16D, 0xFFFFEBC7, 0x000016AC, 0xFFFFD81B, 0x00000F7C, 0xFFFFCB0F,
    0x00000F05, 0x00001E26, 0xFFFFF417, 0x0000229B, 0xFFFFF0DC, 0x0000131F, 0x00001578, 0x00002138,
    0x000000F5, 0xFFFFEF85, 0x0000BDC2, 0x00000811, 0x00002B91, 0xFFFFDF40, 0xFFFFBD31, 0xFFFFEEB2,
    0x0000A41B, 0x00000732, 0xFFFFF76C, 0x00003633, 0x0000077F, 0xFFFFD2F8, 0x00006649, 0xFFFFFFE9,
    0x00001258, 0x00003382, 0xFFFFE2FB, 0x00001129, 0x00006AD9, 0x00006122, 0xFFFFDCC2, 0xFFFFC3CF,
    0xFFFFF5B6, 0xFFFF8686, 0xFFFF0EDE, 0xFFFFD166, 0x00001A07, 0xFFFFB3AB, 0xFFFFA251, 0x000024FD,
    0xFFFFDD54, 0xFFFFEDAF, 0x00001BF4, 0xFFFFE663, 0x000040AB, 0xFFFFFE5F, 0x00002256, 0xFFFFFA3F,
    0xFFFFF53E, 0xFFFFD161, 0xFFFFD2A9, 0x00003BF5, 0x00003DD9, 0xFFFFEA36, 0x0000152F, 0x000005B6,
    0x00002015, 0x00003823, 0x0000479D, 0xFFFFAED4, 0xFFFFC2F1, 0xFFFFD9E5, 0xFFFFDA2B, 0xFFFFF5DB,
    0x000015E2, 0xFFFFF465, 0xFFFFF60A, 0x00007469, 0x00004CC5, 0x000009B3, 0xFFFFF1CA, 0x00000CC6,
    0xFFFFF2A2, 0xFFFF7B79, 0xFFFFF448, 0xFFFFDA94, 0xFFFFF1B6, 0xFFFFE758, 0x00003819, 0xFFFFFDE2,
    0xFFFFC0F5, 0xFFFFDE7C, 0x00000A5E, 0xFFFFDFD6, 0xFFFFD727, 0x0000840F, 0xFFFF8F8A, 0xFFFFD5CE,
    0xFFFFE41D, 0xFFFF928E, 0xFFFFC03D, 0x00001A95, 0x00000BCE, 0x0000333D, 0xFFFF8173, 0xFFFFDD4D,
    0xFFFFE1F4, 0xFFFFC1B9, 0x0000076D, 0xFFFFE36B, 0xFFFF9084, 0xFFFF8FAD, 0x000007D2, 0x00001FCF,
    0xFFFFB25D, 0x000034AE, 0x0000833F, 0x00003056, 0xFFFFC219, 0xFFFFDF54, 0xFFFFF251, 0x00002548,
    0x000069DC, 0x000001AB, 0xFFFFC56C, 0x000004EE, 0x0000162D, 0xFFFFEA8B, 0x00006C62, 0x00000AD7,
    0x00000A33, 0x00002C59, 0xFFFFDE4B, 0x0000299E, 0x00004F8A, 0x00001D10, 0x00002790, 0x00001E4E,
    0x00001729, 0x00004B4C, 0xFFFF8964, 0x000019AE, 0xFFFFDE63, 0xFFFFF464, 0xFFFFD0E5, 0xFFFFFAC7,
    0x00002989, 0xFFFFE2F7, 0xFFFFF4F5, 0x000002A2, 0x00000B4F, 0xFFFFC3B9, 0x0000213C, 0xFFFFD0C2,
    0xFFFFD6B0, 0xFFFFDC71, 0xFFFFF6DC, 0x000019A8, 0x00000749, 0x0000186C, 0x000026E0, 0x000015B3,
    0xFFFFF359, 0xFFFFC5F5, 0x00000ADB, 0xFFFFED64, 0xFFFFEE3A, 0x000006C7, 0xFFFFEA4C, 0x000002AB,
    0x000003DA, 0x00002169, 0x00000C3C, 0x00000EE5, 0x000020D4, 0xFFFFCD31, 0xFFFFEE44, 0xFFFFCFD1,
    0xFFFFF530, 0x00002242, 0x0000317D, 0x0000261D, 0xFFFF807E, 0x000024A0, 0x00000FC4, 0x0000109C,
    0x00001DFD, 0x0000082F, 0xFFFFFD45, 0xFFFFFBF7, 0x000019CB, 0x000043B2, 0xFFFFFFB9, 0xFFFFF06F,
    0x00003C0E, 0x000041ED, 0x00000B99, 0xFFFFD512, 0x00000E91, 0xFFFFF4A5, 0x00001435, 0xFFFF0532,
    0x00002166, 0xFFFFEC39, 0xFFFFDCEB, 0x00007273, 0xFFFFD77B, 0xFFFFF6A1, 0xFFFFAEA9, 0x00007775,
    0xFFFFD5FB, 0x00001E3A, 0x00001989, 0x000019A6, 0xFFFF81C6, 0x0000143E, 0x00000303, 0xFFFFE91B,
    0x00000ACB, 0xFFFFCD01, 0x000006AA, 0x00000213, 0xFFFFE53A, 0xFFFFF316, 0xFFFFF8A0, 0x00004E29,
    0x0000412B, 0x00002E04, 0x000004C3, 0xFFFFD66D, 0x000011A6, 0xFFFFED66, 0x00000C80, 0xFFFFCF7A,
    0x000007BF, 0x000012C2, 0xFFFF8CFB, 0x000014BD, 0x00000711, 0x00001909, 0xFFFFA568, 0x00001A7E,
    0xFFFFED14, 0x00001940, 0x0000439C, 0xFFFFE346, 0xFFFFEB35, 0x000016A2, 0xFFFFFEDA, 0xFFFFF1B1,
    0x00002D89, 0x00000B87, 0xFFFFF589, 0x00000588, 0xFFFFD212, 0xFFFF7FDB, 0xFFFFF718, 0x000002B7,
    0x000005BF, 0x00001E96, 0x00003C0F, 0x000019EE, 0x00000B54, 0xFFFFF442, 0xFFFFE739, 0xFFFFE463,
    0xFFFFEB98, 0x00000959, 0x00002388, 0xFFFFED3A, 0x0000160C, 0x000012D2, 0x00001571, 0xFFFFFD07,
    0xFFFFEF9A, 0xFFFFAAED, 0x00007A74, 0x00000539, 0x00003236, 0xFFFF97D2, 0xFFFF2338, 0xFFFFEB0B,
    0x00004979, 0xFFFFE701, 0xFFFFF8B3, 0x00000A13, 0xFFFFE841, 0xFFFFCD3B, 0x00005D47, 0x00000477,
    0xFFFFF66D, 0x000041B3, 0xFFFF4CF7, 0x00002759, 0x00005529, 0x00005945, 0xFFFFA810, 0xFFFFE5F2,
    0xFFFFFFD1, 0x00002086, 0xFFFF9442, 0xFFFF4BF1, 0x0000134B, 0xFFFFD793, 0xFFFFF18F, 0xFFFFC653,
    0x00000E33, 0xFFFFFD13, 0x00001784, 0xFFFFFCD4, 0xFFFFDFA4, 0xFFFFDA13, 0x00000EAF, 0x0000207B,
    0x00000C56, 0x0000095A, 0x00001725, 0x00004208, 0x000086FA, 0xFFFFDEE0, 0x00004B1F, 0xFFFFF3DD,
    0xFFFFED8C, 0x0000059C, 0x00000DAB, 0xFFFF53AC, 0xFFFFDDE8, 0xFFFFE6FB, 0xFFFFFB77, 0xFFFFEBE1,
    0xFFFFF8FB, 0xFFFF9D2E, 0xFFFF7B9A, 0x000059DA, 0xFFFFEB72, 0xFFFFDA5E, 0xFFFF92EF, 0x0000272E,
    0x00002593, 0xFFFF9F36, 0x00000F31, 0x00001F39, 0xFFFFF040, 0x000017B2, 0xFFFFDAD6, 0xFFFFE8C4,
    0xFFFFED28, 0x000025E1, 0xFFFF870E, 0x0000424C, 0x00000198, 0xFFFFF8E7, 0x00005ACA, 0x000001AB,
    0x00001491, 0xFFFFD76C, 0xFFFFF375, 0x00001655, 0x00000DB5, 0x00001CE2, 0xFFFFE5EF, 0xFFFFDABA,
    0x000009B5, 0xFFFFB838, 0xFFFFCA11, 0xFFFFE02E, 0xFFFFD1ED, 0xFFFFAFE1, 0xFFFF893E, 0x00000F87,
    0xFFFFE63C, 0xFFFFCDB0, 0xFFFFF731, 0x00004AFB, 0xFFFFEEC7, 0x0000127D, 0x00004BEB, 0x000035F9,
    0xFFFFE639, 0x00000925, 0xFFFFD6A4, 0x00000FDD, 0x000036F6, 0x000001EC, 0xFFFFF739, 0xFFFFD0F2,
    0xFFFFFC25, 0x00000B06, 0x00001FE6, 0xFFFF95B6, 0xFFFFCB3F, 0xFFFFC25C, 0xFFFFE91E, 0xFFFFAEDB,
    0xFFFFFBB3, 0xFFFFD0E5, 0xFFFFCCA8, 0x00002DA4, 0xFFFFC799, 0xFFFFA270, 0xFFFFBBC5, 0xFFFFFDEB,
    0x00000269, 0xFFFFFB2F, 0x00001475, 0xFFFFF632, 0x000018E7, 0xFFFFB841, 0xFFFFDF3D, 0xFFFFF9BD,
    0xFFFFE860, 0xFFFFB8AE, 0x00001130, 0x0000365F, 0x000044FA, 0xFFFFD23E, 0x000025A1, 0x00008CB9,
    0x0000138A, 0x00000D94, 0xFFFFE5BA, 0xFFFF9514, 0xFFFFA9E1, 0x00002A3B, 0x00000AC0, 0x00000B3B,
    0x00002073, 0x0000036D, 0xFFFFE786, 0x00000C5F, 0x0000144F, 0xFFFFEFFA, 0xFFFFDCD2, 0xFFFFCC57,
    0x000001FF, 0xFFFFF16F, 0x00001741, 0x00002A3B, 0xFFFF73E1, 0x00001A63, 0x000005DE, 0x000034B9,
    0x00001693, 0x00004514, 0xFFFFBDED, 0xFFFFDCBC, 0x00000D09, 0x00001CBD, 0x000005F1, 0xFFFFF0F7,
    0xFFFFF7C3, 0x000010FC, 0x00002070, 0x00001D28, 0x000008A1, 0x00002155, 0xFFFFE272, 0xFFFF72B1,
    0xFFFFF51F, 0xFFFFF8C3, 0x000009D1, 0xFFFFFC47, 0xFFFFD0ED, 0x00000090, 0xFFFFF370, 0x0000113F,
    0x00003E69, 0xFFFFF919, 0x000004E0, 0xFFFFEC3C, 0xFFFEF1F2, 0xFFFFEF38, 0xFFFFCAA9, 0x000003EC,
    0x00003505, 0x000000CD, 0x00002C11, 0x00002DEB, 0x00000BE3, 0x00000C51, 0x00000BE6, 0xFFFFF9D3,
    0x000005A8, 0xFFFFF16A, 0x00001236, 0x000014FD, 0x0000228D, 0x000042CB, 0x000029CE, 0xFFFFD44B,
    0xFFFFE969, 0xFFFF9AFF, 0xFFFFB433, 0xFFFFC74A, 0xFFFFF819, 0x00001A92, 0xFFFFF52B, 0x00001F34,
    0xFFFFF2C6, 0xFFFFF8C2, 0xFFFF785C, 0xFFFFE646, 0x00000344, 0x00004C5A, 0xFFFFDC43, 0x000005EB,
    0xFFFFF23C, 0xFFFFDE29, 0x00003B0B, 0xFFFFFB9F, 0xFFFFFC61, 0xFFFFC654, 0x00000877, 0xFFFFD78E,
    0xFFFFF34C, 0xFFFFE6B6, 0x0000311A, 0x000004B2, 0xFFFFF001, 0x0000167F, 0x00000F24, 0xFFFFB9BC,
    0xFFFFBFDF, 0xFFFFCD33, 0x00000D26, 0xFFFFC442, 0x00002EC3, 0x00002170, 0xFFFFF1E3, 0xFFFFF21C,
    0xFFFFED5D, 0xFFFFC8EA, 0x000008B1, 0xFFFF995C, 0xFFFFB2AF, 0xFFFFC86E, 0xFFFFAE73, 0xFFFF9503,
    0x00001E10, 0x0000406E, 0x000080BD, 0xFFFFDDAE, 0xFFFFEA3A, 0x0000685B, 0x00001862, 0x000028A4,
    0xFFFFE740, 0xFFFF8897, 0xFFFFAB75, 0x00002F14, 0x00000381, 0x0000114D, 0xFFFFDF19, 0x000035F2,
    0x00002425, 0x00005A5A, 0x000034B9, 0xFFFF5C99, 0xFFFFD709, 0x000002BA, 0x00001BDB, 0xFFFFC1AF,
    0xFFFFD103, 0xFFFFF752, 0xFFFFB9E5, 0x00004494, 0xFFFFED21, 0x00003278, 0x00006A73, 0x000061AC,
    0xFFFFE556, 0x00001213, 0xFFFFDE90, 0xFFFF69A2, 0x00005A99, 0x00000F09, 0xFFFFA025, 0xFFFF4DC9,
    0xFFFFF145, 0x0000242A, 0x00002806, 0xFFFF71F0, 0xFFFFA5C9, 0xFFFFF703, 0xFFFFE91F, 0xFFFFAB2C,
    0xFFFFC5B3, 0xFFFFAC14, 0xFFFFA7D8, 0x00005D9A, 0xFFFFE636, 0x00004C07, 0xFFFFD5AE, 0x0000670F,
    0x000028F3, 0xFFFFB69E, 0x00000A4D, 0x00001DE2, 0xFFFFB278, 0xFFFFF5F8, 0x00000035, 0xFFFFF34F,
    0x00000EA5, 0x0000422C, 0xFFFFC249, 0x000001C0, 0xFFFFFFF3, 0x0000134E, 0x000018F1, 0xFFFFEED1,
    0x00000FCB, 0xFFFFE5D2, 0xFFFFE175, 0x00003F0B, 0x0000181E, 0xFFFFFBAB, 0xFFFFEECE, 0xFFFFC762,
    0xFFFFEE71, 0xFFFFC0E6, 0xFFFFE932, 0xFFFFDE86, 0xFFFF643C, 0xFFFFCE97, 0xFFFFD94B, 0x0000179D,
    0x00004988, 0xFFFFB944, 0xFFFF80D4, 0xFFFFA9CA, 0xFFFFF8FA, 0xFFFFDD9F, 0x00004EBA, 0x000027C7,
    0xFFFFC1B8, 0x000005F2, 0x00000838, 0xFFFF6BF6, 0xFFFFECB0, 0x00004FC1, 0xFFFFD5D4, 0xFFFF5E09,
    0xFFFF9E12, 0xFFFFB329, 0xFFFFC7A8, 0xFFFFF408, 0xFFFF97EB, 0x0000031D, 0x000007D4, 0xFFFFA550,
    0x000019AA, 0xFFFFD9D8, 0xFFFFEC1E, 0x00005A96, 0xFFFFEB97, 0xFFFFF25F, 0xFFFFF071, 0xFFFFF78C,
    0xFFFF8A89, 0x00000FF7, 0xFFFFF86A, 0xFFFFE789, 0x00001AB1, 0xFFFFE69B, 0x00003250, 0xFFFFF178,
    0xFFFFE413, 0xFFFFB5AF, 0x000027C6, 0xFFFFBECF, 0xFFFF8A72, 0x00002568, 0xFFFF9839, 0x0000414A,
    0xFFFFDF18, 0x000010FF, 0xFFFFC7B7, 0xFFFFF45B, 0xFFFFF1D1, 0x00000E0E, 0x00001FA2, 0x000013F0,
    0x00003D74, 0x00001A31, 0x00002DD9, 0xFFFFC5B5, 0xFFFFF77B, 0x000029EC, 0x000028CF, 0xFFFFC23A,
    0x00002D6C, 0xFFFF671B, 0xFFFFFDCB, 0x00004DFA, 0xFFFF863C, 0xFFFFDAA7, 0x00000596, 0x0000100B,
    0xFFFFF429, 0x00001AC4, 0xFFFFEAF2, 0x00000DFD, 0x00000A78, 0x00000657, 0x000037ED, 0xFFFFDA19,
    0x000004EF, 0xFFFF86C3, 0xFFFFFBA5, 0x00003405, 0x0000119B, 0x000005F0, 0xFFFFB053, 0xFFFFC7DF,
    0xFFFFEAE6, 0xFFFFB18D, 0xFFFFE894, 0x000004E1, 0xFFFF9441, 0xFFFFC355, 0xFFFFE38A, 0x000016A5,
    0xFFFFFD46, 0x00001916, 0xFFFFF260, 0xFFFF9895, 0xFFFFA031, 0xFFFFF6E6, 0x000007E3, 0x000007BE,
    0xFFFFF6CD, 0x000021A7, 0x000017C2, 0xFFFFFB76, 0xFFFFFC30, 0x00002CA4, 0xFFFF94D5, 0x00000CBB,
    0x00001A66, 0x00001164, 0x00006C6A, 0xFFFFD5C0, 0x000004F8, 0x00004DF5, 0xFFFFE765, 0xFFFFC58B,
    0x00001C9A, 0xFFFFECC0, 0xFFFFEF99, 0x0000068F, 0x00005D2E, 0x00005FD4, 0xFFFFFF0C, 0x000047F4,
    0xFFFFB259, 0x000003D6, 0xFFFFB49E, 0xFFFF9CBD, 0xFFFFECBB, 0x00002B72, 0x0000465A, 0x00001A20,
    0xFFFFB47D, 0x0000058D, 0x000012CD, 0xFFFFF633, 0x00003939, 0x0000067D, 0xFFFFD022, 0xFFFF58AA,
    0xFFFFAFE0, 0x00001D50, 0x00007E79, 0xFFFF6CF7, 0xFFFFA5DE, 0x000031D6, 0xFFFFE4EF, 0xFFFF90E4,
    0xFFFF9C8F, 0xFFFFBEA7, 0x00000B8B, 0x00004905, 0x00003F8F, 0x00007431, 0xFFFFFC5C, 0xFFFFFF46,
    0x00004A0B, 0xFFFF10A7, 0xFFFFDF9F, 0xFFFFEC86, 0x00001FEA, 0xFFFFC09A, 0xFFFF681A, 0x00001CF7,
    0x0000181D, 0x00007C6B, 0xFFFFBB3B, 0xFFFFF9FF, 0xFFFFF698, 0xFFFFDBA8, 0xFFFFE760, 0x0000131F,
    0x000033E5, 0xFFFF009D, 0x00004930, 0xFFFFD89B, 0x000015F3, 0x000017B4, 0xFFFF221F, 0xFFFF47ED,
    0xFFFFD287, 0xFFFF535D, 0x00000605, 0xFFFFEB96, 0xFFFFBBC9, 0xFFFF8600, 0xFFFFF35F, 0x000031A8,
    0x00003108, 0xFFFFE493, 0xFFFF6AA2, 0xFFFFE81E, 0x0000188E, 0x00000BBF, 0x00000DBE, 0x00001FE6,
    0xFFFFAC27, 0xFFFFF92B, 0x00002AC2, 0x000016DB, 0x00001013, 0x00001B91, 0xFFFFC25E, 0xFFFFBDF2,
    0xFFFFFC0F, 0xFFFFD433, 0xFFFFEDA3, 0x00001CCD, 0xFFFFC07A, 0xFFFFC6E0, 0xFFFFD281, 0x00001013,
    0xFFFFD081, 0xFFFFFE72, 0x00001B7F, 0x0000132A, 0xFFFFF1C4, 0x00000DFE, 0x0000133A, 0x000025A5,
    0xFFFFD201, 0xFFFF423B, 0x00002F8D, 0xFFFFFEAC, 0xFFFEF467, 0xFFFF92AE, 0xFFFF994B, 0xFFFFE72A,
    0x00003FDB, 0x00004A86, 0xFFFF935D, 0xFFFFED2E, 0xFFFFFA32, 0x00007459, 0x0000441C, 0xFFFFD747,
    0x000019FA, 0x00001D0E, 0xFFFF6E67, 0x000095CA, 0x0000A114, 0x000061E4, 0xFFFF277D, 0x0000365A,
    0xFFFFFD20, 0x000012D0, 0x000032E8, 0xFFFFA57E, 0xFFFF5653, 0xFFFF589E, 0x00003FB6, 0xFFFFFC1E,
    0xFFFFDFDD, 0x00000EC6, 0x0000489F, 0xFFFFEFF3, 0x000030FD, 0xFFFFFDC6, 0xFFFFCFB2, 0xFFFFF406,
    0x000025C5, 0x000021F1, 0xFFFFD229, 0x0000145D, 0x00000CFA, 0xFFFFCA7F, 0xFFFFF57D, 0x00003D24,
    0xFFFFE785, 0x00004030, 0x00000EB5, 0xFFFFDFBE, 0x0000229C, 0x00002522, 0xFFFFF4BB, 0xFFFFDC37,
    0x00000926, 0x0000238D, 0x00000D33, 0xFFFFEA64, 0x00001FEA, 0x0000083B, 0x00000AF0, 0xFFFFED84,
    0x00000452, 0xFFFFBAFA, 0xFFFFDE78, 0x00001BB1, 0x00001DEB, 0x00000509, 0x00003EBD, 0xFFFFB341,
    0xFFFFD96E, 0xFFFFF6AB, 0x000008FE, 0xFFFFF544, 0xFFFFCF66, 0x00001E9E, 0xFFFFC18E, 0xFFFFE185,
    0xFFFFF427, 0xFFFFB8D1, 0xFFFFE6B6, 0xFFFFE5C1, 0xFFFFAC13, 0xFFFFD7C1, 0xFFFFDD8F, 0x00001277,
    0xFFFFED1C, 0x00000EF3, 0x00001ADF, 0x00000933, 0x00000CCE, 0xFFFFBE62, 0x00001B06, 0xFFFFEDCF,
    0xFFFFF94B, 0xFFFFE66D, 0x00000050, 0xFFFFFCF1, 0xFFFFD0E2, 0x000029B0, 0x00001C1D, 0x00000B0C,
    0xFFFFC926, 0x000014D9, 0xFFFF07A8, 0x00000A54, 0xFFFFFAE8, 0x00001C47, 0xFFFFFEDD, 0x00001E27,
    0x0000163D, 0x0000288D, 0x00002478, 0x00001AFD, 0xFFFFF449, 0xFFFFE0FD, 0xFFFF4950, 0xFFFFFF5A,
    0x00001C6C, 0x00002051, 0x00001FFC, 0xFFFFE0E9, 0xFFFFDB41, 0x000005D3, 0x0000436B, 0xFFFFED6F,
    0xFFFFE60D, 0x000044E3, 0x0000367D, 0x00001EBA, 0xFFFFCD39, 0x00001B4F, 0x00002751, 0xFFFFFE2C,
    0x000029CF, 0xFFFFC8F6, 0x00002D89, 0x0000089F, 0xFFFFF7A4, 0xFFFFF752, 0x00002057, 0xFFFFD49D,
    0x0000357C, 0x0000195B, 0xFFFFFC5F, 0xFFFFD266, 0x000019BF, 0xFFFFD474, 0x000029BC, 0xFFFF5021,
    0x000000EC, 0x000039D1, 0xFFFFB140, 0x00006AF0, 0x000018DF, 0xFFFFF867, 0xFFFFD37F, 0x00002EA1,
    0x0000158C, 0xFFFF6452, 0xFFFFE30C, 0x00000337, 0xFFFFF597, 0x0000013E, 0x000047CC, 0x00000893,
    0xFFFFC385, 0x00002D68, 0xFFFF4D69, 0xFFFFDD7E, 0x000010ED, 0x0000303A, 0xFFFFFF09, 0xFFFFD899,
    0x0000044B, 0xFFFFEBB1, 0x00003AAA, 0x000009ED, 0xFFFFF15A, 0x00000149, 0xFFFEA4DD, 0xFFFFE362,
    0x00001720, 0x00001526, 0x00001300, 0x000007BC, 0xFFFFE4BD, 0xFFFFE872, 0x00001FA0, 0x00002173,
    0xFFFFD4BD, 0xFFFFFE84, 0x0000D3BE, 0x00004C85, 0xFFFF78DE, 0x00000444, 0xFFFF8F32, 0x00000291,
    0x0000D4A5, 0xFFFFF12D, 0xFFFFDF79, 0x00001905, 0xFFFFF92A, 0xFFFFC1D6, 0x0000D574, 0x0000381D,
    0x0000151F, 0x00003E59, 0xFFFFB43C, 0x00002A12, 0x000084FE, 0x00003660, 0x00002017, 0xFFFF80C5,
    0x000000F6, 0x0000252C, 0xFFFFBD93, 0xFFFF993B, 0xFFFFCA95, 0xFFFF8EEE, 0xFFFF8444, 0xFFFFD499,
    0xFFFFA790, 0x00006B0B, 0x00001592, 0xFFFFBCD8, 0x0000449B, 0x00000EB9, 0x00000BA2, 0x0000295A,
    0x00000CB3, 0xFFFF5F25, 0x00003E9C, 0x00006148, 0x0000850F, 0xFFFF2A3E, 0xFFFFEA16, 0x000034D8,
    0x000004C1, 0x00003AB1, 0xFFFFF17D, 0xFFFF75EC, 0xFFFF670D, 0xFFFFD91C, 0x00005263, 0x00003E3D,
    0xFFFFEF6B, 0x0000108B, 0xFFFFC40E, 0x0000306A, 0x00006D74, 0x00001972, 0xFFFFF356, 0xFFFFD772,
    0x00001731, 0xFFFF868A, 0x0000261C, 0x00000ED8, 0xFFFFACB5, 0xFFFFD162, 0xFFFFD897, 0xFFFFA2AF,
    0x0000222A, 0xFFFFFB84, 0xFFFFF254, 0x000031D4, 0xFFFFCFE8, 0x00003687, 0x00008BE5, 0x00003979,
    0xFFFFEE5E, 0x00000D60, 0xFFFF86D4, 0x00002D81, 0x000060A4, 0x0000385C, 0xFFFF936F, 0x00002A2F,
    0x00002C31, 0x000015DE, 0xFFFFFA14, 0xFFFFC469, 0xFFFFD426, 0xFFFF6414, 0xFFFFED23, 0xFFFFFAE1,
    0xFFFFF9EE, 0xFFFFEC97, 0x00002147, 0x00001C15, 0xFFFFE968, 0xFFFFEF93, 0xFFFFB9F8, 0x0000218D,
    0xFFFFF51D, 0x0000183B, 0xFFFF6F12, 0x00000F25, 0x00001380, 0xFFFFFE92, 0xFFFFF1BB, 0x00000A5A,
    0x00001058, 0x00000644, 0xFFFFF7B7, 0x00001280, 0x0000150C, 0x00000FDA, 0xFFFFC774, 0xFFFFDA3E,
    0x00001E93, 0x00001B2B, 0x000032C6, 0xFFFF9DB1, 0xFFFFDD3F, 0xFFFFD22D, 0x00001203, 0xFFFFF792,
    0x00001DC1, 0x00001153, 0x00000B0C, 0x00000C29, 0x000020C3, 0xFFFFF0CC, 0x000003D0, 0x00000618,
    0x00002126, 0xFFFFCA19, 0xFFFFFF06, 0x0000285F, 0x0000616E, 0xFFFFDDE4, 0x00002BB2, 0x00002F59,
    0xFFFFFBAA, 0x00000D71, 0x00000155, 0xFFFFC750, 0xFFFF641D, 0xFFFFF10C, 0x00002927, 0x00000900,
    0x00000828, 0x00000517, 0xFFFFD93A, 0x000031D8, 0x00001B51, 0xFFFFF374, 0xFFFFA2FE, 0xFFFFFF73,
    0x00000591, 0x00001773, 0xFFFFEFED, 0xFFFFFFB3, 0xFFFFF68E, 0x00003A7A, 0xFFFFE582, 0x00001666,
    0xFFFFF98D, 0x000025D9, 0xFFFF9A3B, 0x00000BD1, 0xFFFFEAE1, 0xFFFFEF7A, 0xFFFFDC68, 0x0000065D,
    0x00004B63, 0x00002A70, 0x00000454, 0x000002CE, 0xFFFFF061, 0xFFFFE46A, 0x000010F7, 0xFFFFECC5,
    0xFFFFF6D0, 0xFFFFFBE9, 0x00002EC9, 0xFFFFE78F, 0xFFFFD0FB, 0x000011CB, 0x00004DF2, 0x00002717,
    0xFFFFD6A9, 0x000020D3, 0x00004775, 0xFFFFFD0C, 0xFFFFB792, 0x0000136D, 0x00003505, 0x000008AD,
    0x00001E14, 0xFFFFEBB9, 0x00001258, 0x00002D21, 0x0000052F, 0xFFFFF989, 0x0000139F, 0x0000007C,
    0x00002368, 0x00002358, 0x0000162F, 0xFFFFDFA4, 0x00001A8C, 0x0000018D, 0x0000122B, 0xFFFF6FE1,
    0x00002593, 0x000061F4, 0xFFFFDFE4, 0x000017D5, 0x00002589, 0x000017EC, 0xFFFFFBEF, 0x00003891,
    0x00001E83, 0xFFFEF357, 0xFFFFD557, 0x00000998, 0x000026E5, 0xFFFFE6AF, 0x00001740, 0x00000075,
    0xFFFFAE71, 0x000032BA, 0xFFFF8B11, 0xFFFFF547, 0x000006A5, 0x0000190A, 0xFFFFF16E, 0xFFFFEDD0,
    0x00000AC2, 0xFFFFB036, 0x000029EB, 0x00000A28, 0xFFFFFDA6, 0xFFFFF4B5, 0xFFFF00F8, 0xFFFFED25,
    0xFFFFEC3D, 0xFFFFFE04, 0x00000EEC, 0x00000896, 0x00000662, 0xFFFFC0F9, 0x0000192C, 0x000020C6,
    0xFFFFF9AF, 0xFFFFD9B1, 0x00007104, 0x00000CB6, 0xFFFFB51C, 0xFFFFE240, 0xFFFFCA62, 0xFFFFC9B9,
    0x000065C1, 0xFFFFF2C1, 0x00000BF4, 0x0000256D, 0xFFFFDC8F, 0x00000535, 0x00005F09, 0x00004C98,
    0x00000E5C, 0x00003F5D, 0xFFFF860D, 0x000022CD, 0x000023B3, 0x00000583, 0xFFFFDF10, 0x0000013D,
    0x00003580, 0x00006D16, 0xFFFFE5D9, 0xFFFF74CB, 0xFFFFBEF5, 0xFFFF7D1B, 0xFFFFD50D, 0xFFFFF18E,
    0xFFFF7AAF, 0x000075C9, 0x00002975, 0xFFFFC1F8, 0xFFFFDCD0, 0x00001C90, 0x0000155A, 0x00005148,
    0x00004BB3, 0xFFFEFB04, 0x000007D9, 0xFFFFFDE6, 0x00005277, 0xFFFFAFFC, 0x0000162F, 0xFFFFEBC6,
    0xFFFFE266, 0x00005485, 0x000002C7, 0xFFFFBF10, 0xFFFF9794, 0xFFFFBDFA, 0x0000485C, 0x00001F6E,
    0x000028AC, 0xFFFFDBC3, 0xFFFFA837, 0x00003BA8, 0x000035FD, 0x00004E00, 0xFFFFDE9B, 0xFFFFE820,
    0x00006832, 0xFFFFB301, 0x00000A32, 0x0000548B, 0xFFFFBDB4, 0xFFFFB41A, 0x000008E3, 0x00001B26,
    0x00003019, 0x00009BA9, 0xFFFFDDB8, 0x000022C7, 0x00002ECC, 0x0000620C, 0x00005AEB, 0xFFFFFBA6,
    0x0000238C, 0xFFFFF1E7, 0xFFFFC5EF, 0xFFFFE18A, 0x00002F35, 0xFFFFE6E3, 0xFFFFB743, 0xFFFF939D,
    0xFFFFF071, 0xFFFF7904, 0xFFFF66A2, 0x00001A84, 0xFFFFA03A, 0xFFFF8C86, 0xFFFF6A4C, 0x000047D5,
    0xFFFFF377, 0xFFFFB9F9, 0xFFFFF647, 0x00000FB9, 0xFFFFE2E2, 0x00001464, 0xFFFFCD42, 0xFFFFE8B3,
    0xFFFFC858, 0x000006D7, 0xFFFF9A2E, 0x000009F4, 0xFFFFD83E, 0xFFFFF4AB, 0x00001172, 0x00002318,
    0x00000A0A, 0xFFFFB4A2, 0x000006BE, 0x00001E2D, 0xFFFFFD79, 0xFFFFFC2F, 0xFFFFC6DC, 0xFFFFFFEB,
    0xFFFFF9F6, 0xFFFFF997, 0x000020D7, 0xFFFF9D74, 0xFFFFC472, 0xFFFFC021, 0x00000FFA, 0xFFFFDDB3,
    0xFFFFABC8, 0x00002D40, 0x00002466, 0xFFFFFC69, 0xFFFFF9B5, 0x00000DE7, 0xFFFFDED2, 0x00000EF8,
    0x000056E3, 0xFFFF9A7B, 0xFFFFF7D6, 0xFFFFFDC8, 0xFFFFE8A3, 0xFFFFC7B9, 0x00006A41, 0x00007980,
    0x000011F3, 0x00001B51, 0xFFFFF639, 0xFFFFE706, 0xFFFFD0D1, 0xFFFFCE50, 0x00001B63, 0x00002C60,
    0x00000F66, 0x000069DE, 0xFFFFB960, 0x00000C06, 0xFFFFFD62, 0x00000FAB, 0xFFFFB6B9, 0xFFFFF8D3,
    0x00004050, 0xFFFFA7D4, 0xFFFFAF5F, 0x00002A51, 0x0000312F, 0x000027F4, 0x00001131, 0xFFFFFEE0,
    0xFFFFF215, 0x000043DE, 0xFFFFD936, 0x0000150A, 0x00001ECD, 0xFFFFFAA0, 0x000015AE, 0xFFFFC4EA,
    0xFFFFD731, 0xFFFFB631, 0x0000631A, 0xFFFFECFC, 0x000002C2, 0x00001C23, 0xFFFF99C6, 0xFFFFA9C5,
    0xFFFF9522, 0xFFFFA51E, 0x0000014A, 0x00000121, 0xFFFFE425, 0x0000080C, 0x00003025, 0xFFFFF3D8,
    0xFFFFE6AF, 0x0000024C, 0x00003648, 0xFFFF9DC6, 0x0000143D, 0xFFFFF7C8, 0x00000680, 0xFFFFEB95,
    0xFFFFE8BB, 0x000020CD, 0xFFFFD0EB, 0xFFFFF07B, 0xFFFFDF0E, 0xFFFFAE38, 0xFFFF8B7F, 0xFFFFEFDB,
    0xFFFFD6AD, 0x00002A7A, 0x00003D63, 0xFFFFCDF5, 0x0000160E, 0x00000855, 0xFFFFE3CB, 0xFFFF63D4,
    0xFFFFC70B, 0xFFFFF906, 0xFFFFEF97, 0xFFFFDF8D, 0xFFFFF1CD, 0x00000F20, 0xFFFFE2E3, 0xFFFFFEAE,
    0xFFFFD7C1, 0xFFFF66F6, 0xFFFFAD15, 0xFFFFC833, 0x00005793, 0xFFFFEE07, 0xFFFFBF47, 0xFFFFE085,
    0xFFFF6955, 0xFFFFDDB5, 0xFFFF9237, 0x00005401, 0x000013A9, 0xFFFFE163, 0xFFFFF4A8, 0xFFFFE67F,
    0xFFFFFBBF, 0xFFFFE6B5, 0x00004520, 0xFFFFE038, 0xFFFFEDD5, 0xFFFFEA14, 0xFFFF3320, 0xFFFFB13C,
    0xFFFFD477, 0xFFFFFE7B, 0x00002815, 0xFFFFD5A8, 0x0000349D, 0x000004B3, 0x00001280, 0x00000063,
    0xFFFFEB3B, 0xFFFEEC27, 0x00000F3C, 0x0000531A, 0xFFFFBBBB, 0xFFFF2040, 0x000064A4, 0xFFFFCD8D,
    0xFFFFF8E8, 0x000037D2, 0xFFFFCBE6, 0xFFFFE75D, 0xFFFFEAF4, 0x00006796, 0x0000084F, 0x00001D49,
    0x00000402, 0x000001DD, 0xFFFFB425, 0x0000478A, 0x000019F2, 0x000032EF, 0xFFFF586F, 0x00006728,
    0x00001990, 0x00001DC8, 0x00001F85, 0xFFFFB046, 0xFFFFBE70, 0xFFFF8E1A, 0x00001426, 0xFFFFD74C,
    0xFFFF6041, 0x00006FB5, 0xFFFFB767, 0xFFFFE073, 0x000063CB, 0x000043CF, 0x000027BC, 0xFFFFDE68,
    0x00002B99, 0xFFFF6CD5, 0x00004FA6, 0xFFFF7C21, 0xFFFFC078, 0xFFFFEFD1, 0xFFFF802E, 0xFFFFE681,
    0xFFFF9EB7, 0xFFFFFF04, 0xFFFFFA92, 0xFFFFD32B, 0xFFFF9428, 0xFFFFE9BB, 0x00001128, 0xFFFFF25D,
    0x00002714, 0xFFFFEDBD, 0x00000891, 0x00000501, 0x00006455, 0x0000639E, 0x00003A5E, 0xFFFFD356,
    0x0000592B, 0xFFFFAC21, 0x00000A20, 0x00003692, 0xFFFFAEC2, 0xFFFFC11F, 0x00005333, 0x0000124B,
    0xFFFFFACC, 0x000019A9, 0xFFFF9D57, 0xFFFFFECD, 0xFFFFF642, 0x00001D68, 0x0000007E, 0xFFFFF6A3,
    0xFFFFFC25, 0xFFFFE998, 0xFFFFE542, 0xFFFFEF7E, 0x00001E18, 0xFFFFC009, 0xFFFFDEF4, 0xFFFFC537,
    0xFFFFE9A2, 0xFFFF9F3C, 0xFFFFAB66, 0xFFFFFEA1, 0xFFFF9CF1, 0xFFFFB75C, 0xFFFFD580, 0x0000417C,
    0xFFFFF2E2, 0xFFFFA7C7, 0xFFFF788E, 0xFFFFDC15, 0x00001DAB, 0x00000D62, 0xFFFFA2CF, 0xFFFFD3CD,
    0xFFFF9D8C, 0xFFFFEA18, 0xFFFFEB86, 0xFFFFEE33, 0xFFFFFE83, 0xFFFFF169, 0x00000214, 0x0000143A,
    0xFFFFE966, 0xFFFF787D, 0x00002FCC, 0x00002FD6, 0xFFFFE246, 0xFFFFE38B, 0xFFFFDFEE, 0x000015EE,
    0xFFFFFB1F, 0x000008F7, 0x00003F54, 0xFFFF9C1C, 0x0000070B, 0xFFFFBE45, 0x00001F01, 0xFFFFDD2C,
    0xFFFFE108, 0x0000445E, 0x00002B6C, 0x00000CCE, 0xFFFF6781, 0xFFFFF98B, 0x000025ED, 0xFFFFC0F4,
    0x00003A00, 0xFFFFDDC5, 0x0000111E, 0xFFFFFED6, 0xFFFF97B7, 0x00000CEF, 0x000031AC, 0x00003E43,
    0xFFFFE6BE, 0x00000B16, 0xFFFFCAF7, 0x00003631, 0x00002DFF, 0xFFFFE22E, 0x00001F0A, 0x000013F4,
    0x00002A6C, 0x00003394, 0xFFFFF7C3, 0xFFFFC70D, 0xFFFFCDC3, 0x000009E2, 0xFFFFFB8E, 0xFFFFC6A1,
    0x00000ACA, 0xFFFF95BA, 0xFFFFCE27, 0xFFFFFD8A, 0x0000119E, 0xFFFFF0DA, 0x000036D2, 0x00000BE7,
    0xFFFFBEFF, 0x00002849, 0xFFFF91CF, 0x00000A19, 0x00003EF8, 0xFFFFEA19, 0xFFFFF615, 0xFFFFCD0F,
    0xFFFFC8C9, 0xFFFFE4CF, 0x000061E5, 0xFFFFC356, 0xFFFFFC33, 0x0000181D, 0xFFFF4076, 0xFFFEDDB1,
    0xFFFFAAD3, 0xFFFF665D, 0x00003D9E, 0x00000556, 0xFFFFF850, 0x000023A8, 0x00005B9E, 0xFFFFE1D6,
    0xFFFFA874, 0x00000CC1, 0xFFFFA44C, 0xFFFEE15D, 0x000017D8, 0x000022DF, 0x00000464, 0xFFFFD4A9,
    0xFFFFE3FF, 0xFFFFCAC8, 0x000035B5, 0x000027BD, 0xFFFFFFA6, 0xFFFF939A, 0xFFFFD746, 0xFFFFADF5,
    0xFFFFE4E9, 0x000049EB, 0x00001328, 0xFFFF967A, 0xFFFF9667, 0x000020FA, 0x000010D3, 0xFFFF7DFB,
    0xFFFF2926, 0xFFFF90DB, 0x000015BE, 0xFFFFE689, 0x0000A016, 0x000096A1, 0x00002035, 0x0000188E,
    0xFFFF671B, 0xFFFFFABF, 0x00002308, 0xFFFF37DE, 0x00008B3E, 0xFFFFB022, 0xFFFFA459, 0x00000250,
    0xFFFF3E23, 0xFFFF96FE, 0xFFFF8B1B, 0xFFFFD8EB, 0x0000073E, 0xFFFFC0E6, 0xFFFFAF6A, 0xFFFFD15E,
    0x00000178, 0x00005F0F, 0x00000484, 0xFFFF7304, 0xFFFFB6B4, 0x00001F83, 0xFFFF25A9, 0xFFFFACCF,
    0xFFFFB7B8, 0x0000105D, 0x00008DAF, 0xFFFF9BFC, 0x00007B23, 0x00005C67, 0x000061C8, 0xFFFFD8BD,
    0xFFFFDBA8, 0xFFFFD6D9, 0xFFFFD620, 0xFFFFB4C7, 0x0000702F, 0xFFFF9D7B, 0xFFFF864E, 0x00004206,
    0xFFFFAC75, 0x00000AAA, 0xFFFFE6DC, 0x00001616, 0x000061E7, 0xFFFFC3A7, 0xFFFF9308, 0xFFFFFFB5,
    0xFFFFEE8D, 0x000034C7, 0x00002CDA, 0xFFFEBB8D, 0xFFFFAF89, 0x00007B12, 0xFFFFA0EF, 0xFFFF6E29,
    0xFFFF9DBE, 0xFFFF59A1, 0xFFFFB954, 0xFFFFFCE0, 0x0000AD93, 0x0000D303, 0x00004A64, 0xFFFFE499,
    0x00009C0C, 0x00000B2F, 0xFFFF614E, 0x00003D32, 0x00001E18, 0x00003638, 0x0000A57F, 0x00004EB4,
    0xFFFFA839, 0xFFFFEE0D, 0x00003A97, 0x00002867, 0x000053E2, 0x00005AC8, 0xFFFFC9B4, 0xFFFFEFCA,
    0x0000229F, 0xFFFFC650, 0x00002782, 0x00002FF2, 0xFFFF69FC, 0xFFFF6CEB, 0x00004B87, 0x00009698,
    0x000053D2, 0x00002F0C, 0xFFFFF6FC, 0x0000ABB5, 0xFFFFCA37, 0xFFFFBFE0, 0xFFFFE64E, 0x00006CC1,
    0x000019F1, 0x00003A5A, 0xFFFF206B, 0x000045B3, 0x00003BB7, 0x000055D6, 0x000011B9, 0x000007E0,
    0xFFFFC34A, 0x0000A823, 0x0000185A, 0xFFFF7505, 0x00004C16, 0x0000122A, 0x000007DF, 0x00003E53,
    0xFFFF8CDB, 0xFFFF3BEC, 0x00001CDD, 0xFFFF8AD1, 0xFFFF3D22, 0x0000201E, 0xFFFFB3D3, 0x000012D2,
    0x00005037, 0xFFFFAC8D, 0x00001AD9, 0x00000024, 0x000055B5, 0xFFFFD4CB, 0xFFFFD15F, 0x00005B1F,
    0xFFFFBA51, 0xFFFEE6ED, 0xFFFFE1DF, 0x0000578E, 0xFFFF8298, 0x000022DC, 0x00009184, 0xFFFFDDE4,
    0x00001929, 0x000001EB, 0x00001F66, 0x000023B6, 0xFFFFCB9B, 0x00003674, 0xFFFFE228, 0x0000655E,
    0xFFFF9D4D, 0x000003BA, 0x000046E8, 0x00002404, 0x000017B7, 0xFFFFBC29, 0x0000260B, 0x00003A56,
    0xFFFFA8AD, 0x000082CA, 0x000031E7, 0x0000972C, 0xFFFFF659, 0x0000ADA0, 0x00000169, 0x0000B1E8,
    0x0000911E, 0xFFFFFB97, 0xFFFFE65E, 0x000023AA, 0xFFFFED13, 0xFFFFDA03, 0xFFFFB93B, 0xFFFFC02E,
    0x00009737, 0xFFFFCC7A, 0xFFFF4D11, 0xFFFFFE50, 0xFFFFF109, 0x00000B64, 0x000097CC, 0xFFFF881A,
    0x00001641, 0xFFFFCE99, 0xFFFF1C72, 0xFFFFB527, 0xFFFFB7F5, 0x0000C462, 0x0000056D, 0x00005522,
    0x00000B1C, 0xFFFFF9CD, 0x00007C0C, 0xFFFFD013, 0xFFFF995E, 0x000008D4, 0x00003664, 0x000036A5,
    0x000034EA, 0x00001F6C, 0xFFFF538A, 0x00004CA1, 0x000004B8, 0x00008510, 0xFFFFC910, 0x000031CD,
    0xFFFFFE4C, 0xFFFFF329, 0x000062C3, 0x000058E1, 0x00001851, 0x0000D0EF, 0xFFFFDE45, 0x000024DC,
    0x000015DE, 0xFFFFDF8C, 0x00005522, 0xFFFFA7BA, 0x0000264C, 0xFFFF5021, 0x000046F5, 0xFFFF8E50,
    0x00001973, 0xFFFFEAF4, 0x0000120A, 0x00006DA7, 0x0000463F, 0x000078AF, 0x000033F5, 0x0000416F,
    0xFFFFBF04, 0xFFFF2E86, 0x00002AD6, 0x00003ED5, 0xFFFF4942, 0x00002655, 0x000091F8, 0xFFFFFE28,
    0x00004E6B, 0x00000F54, 0x00002827, 0xFFFFEEF2, 0x00004308, 0x00002F0E, 0xFFFFE7E3, 0x00006ED0,
    0x000019C1, 0xFFFFF728, 0x0000264F, 0xFFFFF82E, 0x000068B0, 0x00003BAB, 0x000070CD, 0xFFFFD2E5,
    0xFFFFD1B6, 0x00007F21, 0x00001BE6, 0xFFFFB2F8, 0xFFFFECF9, 0x0000147E, 0x0000A3B1, 0x00001D3A,
    0x00002CF3, 0x000022A6, 0x00001033, 0xFFFFFA30, 0xFFFF9763, 0x000063CD, 0x00004438, 0xFFFFDB9D,
    0x00007A23, 0xFFFFD2A3, 0x000032FA, 0xFFFFB0D2, 0x000071B0, 0xFFFFBD4A, 0xFFFF9EA0, 0xFFFF9E03,
    0xFFFFE5FF, 0x000027DF, 0xFFFF17DC, 0x0000692E, 0xFFFFF451, 0x00006054, 0xFFFFF1C2, 0xFFFFEFEC,
    0x00004DF0, 0x00008B0D, 0x000023D0, 0xFFFFB2DB, 0x0000357D, 0xFFFFFEDB, 0xFFFFF3B8, 0x00009B07,
    0x00001B54, 0xFFFFF3F4, 0x0000479E, 0x00000FDF, 0x0000186D, 0xFFFFE256, 0x00000AA3, 0xFFFF7006,
    0x0000597B, 0x00000441, 0xFFFFED2A, 0x000056D1, 0x0000316B, 0x0000CA27, 0x00000AC2, 0x0000520B,
    0x00000B6E, 0x000018F1, 0x00000ECF, 0xFFFFF43A, 0x0000069E, 0xFFFFB00D, 0x00002B06, 0x00005609,
    0xFFFFCE77, 0x0000742E, 0x000089EC, 0x00001434, 0x00003C84, 0x00003597, 0xFFFFFECC, 0xFFFFBD9B,
    0xFFFFC89A, 0xFFFFD42D, 0x0000114A, 0x000074C6, 0xFFFF7216, 0xFFFFFEBC, 0x00004FA8, 0xFFFF7E26,
    0x00005EB5, 0x00004B68, 0xFFFFF4F8, 0xFFFFBF1B, 0x000057EF, 0x0000471B, 0x00000079, 0x000098C5,
    0x000053E8, 0x0000204F, 0xFFFFEC20, 0x00006588, 0xFFFFAA5B, 0x00001EE5, 0xFFFFDE38, 0x000069AF,
    0x00003D7E, 0xFFFFE86B, 0x000037C0, 0x00000737, 0x00007397, 0xFFFFA68D, 0xFFFFE9F8, 0x00005243,
    0x00003957, 0xFFFFF396, 0xFFFF4A02, 0xFFFFC6CE, 0x0000062F, 0xFFFFF3CF, 0x0000092D, 0x00002CA3,
    0x0000008F, 0x00009405, 0x0000AA7F, 0xFFFFFB0B, 0x0000122F, 0xFFFFE6FE, 0xFFFFCD5C, 0x00006B19,
    0xFFFF9B58, 0xFFFEDDA7, 0xFFFF8E3A, 0xFFFF6289, 0xFFFFC972, 0x00001CFA, 0xFFFFDF5B, 0x00001066,
    0x00002994, 0x00001390, 0x00002F87, 0x00005604, 0xFFFFD532, 0x000018B9, 0xFFFFBFAE, 0x00006013,
    0x0000253E, 0x0000012F, 0xFFFFDFD0, 0xFFFFF6F0, 0x00003D23, 0x0000B859, 0x00002FF5, 0x00002A52,
    0x00005436, 0x00001171, 0x00001190, 0xFFFFD05B, 0xFFFFE5EF, 0x000089E6, 0x0000470E, 0xFFFFE100,
    0x0000125E, 0xFFFFFA86, 0x00008459, 0x00001D08, 0xFFFFB567, 0xFFFFF8DD, 0x0000097E, 0x00008745,
    0xFFFFBD2D, 0x0000D496, 0x0000108B, 0xFFFFF296, 0xFFFFE5A8, 0xFFFFE73F, 0x00003D58, 0x0000078D,
    0xFFFFFE30, 0xFFFF4CAE, 0x00002CD8, 0x0000745E, 0xFFFF71BE, 0xFFFFB07F, 0x00007D5C, 0xFFFFC756,
    0xFFFFC165, 0xFFFFD2DF, 0xFFFFF996, 0x00002F74, 0xFFFFF496, 0xFFFFDEFB, 0x00000457, 0x0000379A,
    0x00002B29, 0xFFFF26BE, 0xFFFFF577, 0x000053E3, 0xFFFFEB23, 0xFFFFCC5C, 0x00006F21, 0xFFFFDBDF,
    0x00002995, 0x00002CCF, 0x0000044A, 0x00003D95, 0x00005C1B, 0x0000368F, 0x00006F23, 0xFFFFC9FD,
    0xFFFFD423, 0xFFFF7DBD, 0xFFFFFC10, 0xFFFF8BF2, 0xFFFF12FA, 0xFFFF7510, 0xFFFFFA6B, 0x000058F3,
    0x00004ADB, 0xFFFFEC76, 0xFFFFA3DE, 0x000022F6, 0x000094A9, 0xFFFFBEB5, 0x00000C4E, 0x00007502,
    0x00004487, 0x00005B4E, 0x00007873, 0x00005477, 0xFFFF1C32, 0xFFFFEECD, 0xFFFFA3B7, 0x00002A81,
    0x0000172F, 0xFFFF834B, 0xFFFFEC96, 0x00006628, 0x0000A193, 0xFFFFF948, 0xFFFF8499, 0xFFFFA823,
    0xFFFFFC42, 0xFFFFF0EE, 0xFFFFF2E5, 0xFFFFEA70, 0x000003D1, 0xFFFF7503, 0x00002642, 0x00002F10,
    0x000000B2, 0x00001747, 0x000088F7, 0x00006A95, 0x00006256, 0xFFFFD3CA, 0xFFFFF3F9, 0x0000069F,
    0x0000069F, 0x0000107D, 0xFFFFEC3B, 0x0000790A, 0xFFFF671C, 0x000005F3, 0xFFFF5652, 0x00008BE7,
    0x0000360A, 0xFFFFBECC, 0xFFFFFC1F, 0x00009EB8, 0x00001182, 0x000020B6, 0xFFFFB6A4, 0x000056B6,
    0x00008A97, 0xFFFFD611, 0xFFFFB1AD, 0x00003157, 0x00002169, 0x00004E4B, 0x00000F77, 0x00006E78,
    0x000027DF, 0xFFFFE72D, 0x00000AA5, 0x00006287, 0xFFFF67A0, 0xFFFFF8B4, 0x00005D10, 0x000031ED,
    0xFFFFC581, 0x00000EF0, 0xFFFF8FD4, 0x0000104C, 0x0000001D, 0x00003E17, 0xFFFFE8A0, 0xFFFF2B2A,
    0x000022B0, 0xFFFFC704, 0x0000453D, 0x00000187, 0x00008462, 0x00009E24, 0xFFFFF670, 0x0000A000,
    0x0000166C, 0xFFFFE471, 0xFFFFFC64, 0x00000A10, 0x0000166E, 0x0000344F, 0x00001409, 0xFFFFEBE5,
    0x0000C7AE, 0xFFFFC4D0, 0xFFFFEEF2, 0xFFFFFBD3, 0x00000DA1, 0x00004E2F, 0x0000226A, 0x00001482,
    0xFFFFF890, 0xFFFF331E, 0x00002021, 0xFFFF8EA7, 0xFFFFF838, 0x0000379D, 0x00005627, 0x00001A1C,
    0x000082D2, 0xFFFFB6CB, 0x0000681D, 0x00003627, 0x00001DDB, 0x00004C85, 0x000053EF, 0xFFFFF83E,
    0x0000086F, 0x00000ABC, 0x00000D19, 0xFFFFD477, 0x0000091B, 0x00003000, 0xFFFFD410, 0x000055AD,
    0x00003BA3, 0x00003087, 0x00002217, 0x0000B5E9, 0xFFFF8447, 0x000001F6, 0x00004584, 0x000027BB,
    0xFFFFB9C1, 0xFFFFEB8D, 0xFFFF049F, 0x000000C2, 0x00000254, 0x0000236C, 0xFFFFF852, 0x00000750,
    0xFFFFF2E3, 0x00005CDD, 0x0000A1D6, 0xFFFFC195, 0x0000110B, 0x000022D1, 0x000042DD, 0x0000A221,
    0x0000E052, 0x00013A31, 0x0000821E, 0x00005A40, 0x0000E26E, 0x00002787, 0x00004B62, 0x00006091,
    0x00001483, 0x00004F7A, 0x000035B7, 0x0000A411, 0x00006F74, 0x0000A583, 0x00009921, 0x000011AD,
    0x00007D37, 0x00003BE8, 0x000039CA, 0xFFFFCA66, 0xFFFFD337, 0x000019D1, 0x00004B8F, 0xFFFFDF78,
    0xFFFFFFAA, 0xFFFFE297, 0x00007B4B, 0x00011451, 0xFFFFE76E, 0xFFFF92D8, 0xFFFF8991, 0xFFFF94D5,
    0x00007B2E, 0xFFFF7ECC, 0x00001DEE, 0xFFFF8C54, 0x00006AC9, 0xFFFF81F7, 0x00003FD3, 0x0000AD87,
    0xFFFF7283, 0xFFFFE945, 0xFFFFCF1C, 0x000073AA, 0xFFFFC581, 0xFFFFBEF9, 0x000046A1, 0x0000A1A6,
    0xFFFFD204, 0x000015D0, 0xFFFFCAFA, 0x00007E5A, 0xFFFFCD8A, 0xFFFFC1F5, 0xFFFF97D2, 0xFFFFC234,
    0xFFFFB29B, 0xFFFF7117, 0x000074B2, 0xFFFFB36B, 0xFFFFDE7E, 0xFFFFB8EC, 0x0000390D, 0xFFFFA745,
    0x000090EA, 0xFFFF85A9, 0xFFFFCC5E, 0x00004368, 0xFFFFFA0E, 0xFFFFBC1C, 0x0000883E, 0xFFFFCAEF,
    0x00009B62, 0xFFFFA317, 0xFFFFC8A3, 0xFFFF9325, 0xFFFFBC14, 0xFFFFB682, 0x0000615C, 0x0000948C,
    0xFFFFEE34, 0x000083B3, 0xFFFF9307, 0x000030FE, 0xFFFFEE00, 0x00001591, 0x00009D2A, 0xFFFF83C5,
    0xFFFFD59A, 0x00003AE4, 0x000029D4, 0xFFFFE696, 0x000082B6, 0x00006828, 0xFFFFD831, 0x00000696,
    0xFFFF827B, 0x0000594E, 0x00005E9E, 0xFFFFD4F4, 0x0000949C, 0xFFFFB22F, 0xFFFFC5FA, 0x0000988F,
    0xFFFF7E07, 0x00001B4A, 0x00001B88, 0x00001967, 0xFFFFD7AF, 0x0000648D, 0xFFFFC67C, 0x00009887,
    0x00008C15, 0xFFFF9886, 0x00006A6B, 0x00000C72, 0x00004B08, 0xFFFF073D, 0xFFFFB295, 0xFFFF78AA,
    0x0000545E, 0x00007B32, 0x0000417A, 0xFFFFCA5B, 0x00004CE9, 0x00001E32, 0x00006C21, 0xFFFF8559,
    0x000026E2, 0xFFFFC5A8, 0xFFFFD859, 0xFFFF874D, 0xFFFF6600, 0xFFFFC5DC, 0xFFFFC1BF, 0x00004CF5,
    0xFFFFAE59, 0x00003E66, 0xFFFF8C37, 0xFFFFC386, 0xFFFF9E5D, 0x0000172B, 0xFFFF742F, 0x0000AA8C,
    0x00004632, 0x00000EA3, 0x0000017A, 0x0000857C, 0x00004D75, 0x000067F0, 0x0000343E, 0xFFFF980E,
    0xFFFF6297, 0x00002482, 0x0000C30A, 0x0000053B, 0xFFFFE6EC, 0x00000EB7, 0x00007EF9, 0x00004E42,
    0xFFFF8F45, 0xFFFFFD7F, 0x00005DA6, 0x00000631, 0xFFFFFA8F, 0xFFFF5C7C, 0xFFFF94C0, 0xFFFFDB1C,
    0xFFFFD2BF, 0x00002A98, 0x00005A8E, 0xFFFFE97B, 0x000005FD, 0xFFFFC487, 0xFFFFF59B, 0x0000BC36,
    0x000060C7, 0x00000C5C, 0x00001AE9, 0xFFFFF5FD, 0xFFFFA013, 0xFFFFAC33, 0x000007DE, 0xFFFFB35B,
    0x00007A87, 0x00000907};
#endif
